{
  "version": "1.0",
  "truncation": null,
  "padding": null,
  "added_tokens": [
    {
      "id": 0,
      "content": "[UNK]",
      "single_word": false,
      "lstrip": false,
      "rstrip": false,
      "normalized": false,
      "special": true
    },
    {
      "id": 1,
      "content": "[PAD]",
      "single_word": false,
      "lstrip": false,
      "rstrip": false,
      "normalized": false,
      "special": true
    },
    {
      "id": 2,
      "content": "[SOS]",
      "single_word": false,
      "lstrip": false,
      "rstrip": false,
      "normalized": false,
      "special": true
    },
    {
      "id": 3,
      "content": "[EOS]",
      "single_word": false,
      "lstrip": false,
      "rstrip": false,
      "normalized": false,
      "special": true
    }
  ],
  "normalizer": {
    "type": "Sequence",
    "normalizers": [
      {
        "type": "Strip",
        "strip_left": true,
        "strip_right": true
      },
      {
        "type": "Lowercase"
      },
      {
        "type": "StripAccents"
      }
    ]
  },
  "pre_tokenizer": {
    "type": "Whitespace"
  },
  "post_processor": null,
  "decoder": null,
  "model": {
    "type": "BPE",
    "dropout": null,
    "unk_token": "[UNK]",
    "continuing_subword_prefix": null,
    "end_of_word_suffix": null,
    "fuse_unk": false,
    "byte_fallback": false,
    "ignore_merges": false,
    "vocab": {
      "[UNK]": 0,
      "[PAD]": 1,
      "[SOS]": 2,
      "[EOS]": 3,
      "!": 4,
      "\"": 5,
      "#": 6,
      "$": 7,
      "%": 8,
      "&": 9,
      "'": 10,
      "(": 11,
      ")": 12,
      "*": 13,
      "+": 14,
      ",": 15,
      "-": 16,
      ".": 17,
      "/": 18,
      "0": 19,
      "1": 20,
      "2": 21,
      "3": 22,
      "4": 23,
      "5": 24,
      "6": 25,
      "7": 26,
      "8": 27,
      "9": 28,
      ":": 29,
      ";": 30,
      "<": 31,
      "=": 32,
      ">": 33,
      "?": 34,
      "@": 35,
      "[": 36,
      "\\": 37,
      "]": 38,
      "^": 39,
      "_": 40,
      "`": 41,
      "a": 42,
      "b": 43,
      "c": 44,
      "d": 45,
      "e": 46,
      "f": 47,
      "g": 48,
      "h": 49,
      "i": 50,
      "j": 51,
      "k": 52,
      "l": 53,
      "m": 54,
      "n": 55,
      "o": 56,
      "p": 57,
      "q": 58,
      "r": 59,
      "s": 60,
      "t": 61,
      "u": 62,
      "v": 63,
      "w": 64,
      "x": 65,
      "y": 66,
      "z": 67,
      "{": 68,
      "|": 69,
      "}": 70,
      "~": 71,
      "¡": 72,
      "¢": 73,
      "£": 74,
      "¤": 75,
      "¥": 76,
      "¦": 77,
      "§": 78,
      "¨": 79,
      "©": 80,
      "ª": 81,
      "«": 82,
      "¬": 83,
      "­": 84,
      "®": 85,
      "¯": 86,
      "°": 87,
      "±": 88,
      "²": 89,
      "³": 90,
      "´": 91,
      "µ": 92,
      "¶": 93,
      "·": 94,
      "¸": 95,
      "¹": 96,
      "º": 97,
      "»": 98,
      "¼": 99,
      "½": 100,
      "¾": 101,
      "¿": 102,
      "×": 103,
      "ß": 104,
      "à": 105,
      "á": 106,
      "â": 107,
      "ã": 108,
      "ä": 109,
      "å": 110,
      "æ": 111,
      "ç": 112,
      "è": 113,
      "é": 114,
      "ê": 115,
      "ë": 116,
      "ì": 117,
      "í": 118,
      "î": 119,
      "ï": 120,
      "ð": 121,
      "ñ": 122,
      "ò": 123,
      "ó": 124,
      "ô": 125,
      "õ": 126,
      "ö": 127,
      "÷": 128,
      "ø": 129,
      "ù": 130,
      "ú": 131,
      "û": 132,
      "ü": 133,
      "ý": 134,
      "þ": 135,
      "ÿ": 136,
      "ā": 137,
      "ă": 138,
      "ą": 139,
      "ć": 140,
      "č": 141,
      "đ": 142,
      "ē": 143,
      "ė": 144,
      "ę": 145,
      "ě": 146,
      "ğ": 147,
      "ġ": 148,
      "ħ": 149,
      "ī": 150,
      "ı": 151,
      "ł": 152,
      "ń": 153,
      "ň": 154,
      "ō": 155,
      "ŏ": 156,
      "ő": 157,
      "œ": 158,
      "ř": 159,
      "ś": 160,
      "ş": 161,
      "š": 162,
      "ţ": 163,
      "ū": 164,
      "ź": 165,
      "ż": 166,
      "ž": 167,
      "ƙ": 168,
      "ǀ": 169,
      "ǃ": 170,
      "ǐ": 171,
      "ș": 172,
      "ț": 173,
      "ə": 174,
      "ʀ": 175,
      "ʊ": 176,
      "ʻ": 177,
      "ʼ": 178,
      "ʽ": 179,
      "ʿ": 180,
      "ˆ": 181,
      "ˈ": 182,
      "˚": 183,
      "˜": 184,
      "˝": 185,
      ";": 186,
      "ά": 187,
      "ί": 188,
      "α": 189,
      "β": 190,
      "ε": 191,
      "ζ": 192,
      "ι": 193,
      "κ": 194,
      "λ": 195,
      "μ": 196,
      "ν": 197,
      "ο": 198,
      "π": 199,
      "ρ": 200,
      "ς": 201,
      "σ": 202,
      "τ": 203,
      "φ": 204,
      "ω": 205,
      "ό": 206,
      "ώ": 207,
      "ϟ": 208,
      "а": 209,
      "б": 210,
      "в": 211,
      "д": 212,
      "е": 213,
      "з": 214,
      "и": 215,
      "й": 216,
      "к": 217,
      "л": 218,
      "м": 219,
      "н": 220,
      "о": 221,
      "п": 222,
      "р": 223,
      "с": 224,
      "т": 225,
      "у": 226,
      "ы": 227,
      "ь": 228,
      "ю": 229,
      "я": 230,
      "і": 231,
      "ї": 232,
      "ћ": 233,
      "ӓ": 234,
      "ӧ": 235,
      "ԯ": 236,
      "ן": 237,
      "أ": 238,
      "ا": 239,
      "ب": 240,
      "ة": 241,
      "ت": 242,
      "ج": 243,
      "ح": 244,
      "ر": 245,
      "س": 246,
      "ش": 247,
      "ع": 248,
      "ف": 249,
      "ك": 250,
      "ل": 251,
      "م": 252,
      "و": 253,
      "ي": 254,
      "ง": 255,
      "ต": 256,
      "บ": 257,
      "ป": 258,
      "พ": 259,
      "ย": 260,
      "ร": 261,
      "ะ": 262,
      "ḍ": 263,
      "ḥ": 264,
      "ṣ": 265,
      "ạ": 266,
      "ả": 267,
      "ấ": 268,
      "ế": 269,
      "ễ": 270,
      "ị": 271,
      "ồ": 272,
      "ἶ": 273,
      "ὴ": 274,
      "​": 275,
      "‍": 276,
      "‎": 277,
      "‏": 278,
      "‐": 279,
      "‑": 280,
      "‒": 281,
      "–": 282,
      "—": 283,
      "―": 284,
      "‘": 285,
      "’": 286,
      "‚": 287,
      "“": 288,
      "”": 289,
      "„": 290,
      "‟": 291,
      "†": 292,
      "‡": 293,
      "•": 294,
      "…": 295,
      "‪": 296,
      "‫": 297,
      "‬": 298,
      "‭": 299,
      "‰": 300,
      "′": 301,
      "″": 302,
      "‹": 303,
      "‼": 304,
      "⁄": 305,
      "⁮": 306,
      "⁰": 307,
      "₩": 308,
      "€": 309,
      "℃": 310,
      "™": 311,
      "⅓": 312,
      "⅔": 313,
      "⅛": 314,
      "⅜": 315,
      "→": 316,
      "∑": 317,
      "−": 318,
      "∙": 319,
      "∼": 320,
      "─": 321,
      "█": 322,
      "■": 323,
      "▬": 324,
      "▲": 325,
      "▼": 326,
      "●": 327,
      "★": 328,
      "☆": 329,
      "☺": 330,
      "♡": 331,
      "♥": 332,
      "❤": 333,
      "き": 334,
      "ご": 335,
      "さ": 336,
      "た": 337,
      "っ": 338,
      "て": 339,
      "ろ": 340,
      "ん": 341,
      "コ": 342,
      "ゴ": 343,
      "ネ": 344,
      "ル": 345,
      "ロ": 346,
      "ー": 347,
      "世": 348,
      "个": 349,
      "中": 350,
      "你": 351,
      "分": 352,
      "呀": 353,
      "四": 354,
      "回": 355,
      "声": 356,
      "外": 357,
      "女": 358,
      "家": 359,
      "寝": 360,
      "帰": 361,
      "年": 362,
      "心": 363,
      "新": 364,
      "方": 365,
      "明": 366,
      "春": 367,
      "曆": 368,
      "有": 369,
      "朝": 370,
      "来": 371,
      "松": 372,
      "没": 373,
      "游": 374,
      "界": 375,
      "石": 376,
      "等": 377,
      "節": 378,
      "紅": 379,
      "綠": 380,
      "縄": 381,
      "縯": 382,
      "自": 383,
      "藍": 384,
      "農": 385,
      "过": 386,
      "钱": 387,
      "门": 388,
      "音": 389,
      "鮭": 390,
      "강": 391,
      "남": 392,
      "스": 393,
      "일": 394,
      "타": 395,
      "": 396,
      "": 397,
      "": 398,
      "ﬀ": 399,
      "ﬁ": 400,
      "ﬂ": 401,
      "﻿": 402,
      "！": 403,
      "（": 404,
      "）": 405,
      "，": 406,
      "ｍ": 407,
      "ｓ": 408,
      "￥": 409,
      "￼": 410,
      "�": 411,
      "💀": 412,
      "😳": 413,
      "🙏": 414,
      "th": 415,
      "in": 416,
      "er": 417,
      "an": 418,
      "the": 419,
      "on": 420,
      "re": 421,
      "ed": 422,
      "en": 423,
      "at": 424,
      "st": 425,
      "or": 426,
      "to": 427,
      "al": 428,
      "ar": 429,
      "ing": 430,
      "ou": 431,
      "is": 432,
      "as": 433,
      "and": 434,
      "it": 435,
      "of": 436,
      "es": 437,
      "ic": 438,
      "le": 439,
      "ro": 440,
      "he": 441,
      "il": 442,
      "id": 443,
      "be": 444,
      "se": 445,
      "ion": 446,
      "ch": 447,
      "ent": 448,
      "ve": 449,
      "ad": 450,
      "am": 451,
      "ac": 452,
      "ay": 453,
      "for": 454,
      "om": 455,
      "wh": 456,
      "ol": 457,
      "ly": 458,
      "im": 459,
      "ow": 460,
      "ig": 461,
      "ir": 462,
      "was": 463,
      "un": 464,
      "ter": 465,
      "ur": 466,
      "ver": 467,
      "de": 468,
      "ot": 469,
      "that": 470,
      "ut": 471,
      "sa": 472,
      "wi": 473,
      "ne": 474,
      "we": 475,
      "ge": 476,
      "ha": 477,
      "ce": 478,
      "with": 479,
      "li": 480,
      "pe": 481,
      "ri": 482,
      "are": 483,
      "ld": 484,
      "ther": 485,
      "ill": 486,
      "us": 487,
      "con": 488,
      "ab": 489,
      "mo": 490,
      "lo": 491,
      "ke": 492,
      "ers": 493,
      "ation": 494,
      "said": 495,
      "his": 496,
      "oun": 497,
      "su": 498,
      "ra": 499,
      "la": 500,
      "te": 501,
      "sh": 502,
      "com": 503,
      "ct": 504,
      "op": 505,
      "out": 506,
      "her": 507,
      "all": 508,
      "by": 509,
      "res": 510,
      "rom": 511,
      "igh": 512,
      "our": 513,
      "ag": 514,
      "fe": 515,
      "ul": 516,
      "one": 517,
      "ate": 518,
      "af": 519,
      "from": 520,
      "have": 521,
      "ye": 522,
      "has": 523,
      "ap": 524,
      "but": 525,
      "man": 526,
      "pro": 527,
      "ts": 528,
      "ere": 529,
      "so": 530,
      "me": 531,
      "ment": 532,
      "pl": 533,
      "she": 534,
      "di": 535,
      "day": 536,
      "ex": 537,
      "sp": 538,
      "00": 539,
      "ould": 540,
      "go": 541,
      "not": 542,
      "art": 543,
      "ain": 544,
      "up": 545,
      "they": 546,
      "end": 547,
      "ll": 548,
      "ist": 549,
      "bo": 550,
      "wor": 551,
      "gh": 552,
      "who": 553,
      "year": 554,
      "ight": 555,
      "ack": 556,
      "au": 557,
      "po": 558,
      "had": 559,
      "co": 560,
      "ity": 561,
      "tr": 562,
      "ice": 563,
      "ess": 564,
      "this": 565,
      "per": 566,
      "ome": 567,
      "after": 568,
      "ant": 569,
      "ard": 570,
      "qu": 571,
      "ie": 572,
      "ort": 573,
      "ak": 574,
      "do": 575,
      "off": 576,
      "ust": 577,
      "ok": 578,
      "cl": 579,
      "ive": 580,
      "been": 581,
      "were": 582,
      "their": 583,
      "br": 584,
      "ide": 585,
      "ound": 586,
      "red": 587,
      "if": 588,
      "fo": 589,
      "tim": 590,
      "will": 591,
      "new": 592,
      "ies": 593,
      "ber": 594,
      "own": 595,
      "no": 596,
      "act": 597,
      "der": 598,
      "ich": 599,
      "ast": 600,
      "bl": 601,
      "ial": 602,
      "ine": 603,
      "gr": 604,
      "can": 605,
      "ough": 606,
      "um": 607,
      "pol": 608,
      "when": 609,
      "sc": 610,
      "20": 611,
      "pr": 612,
      "ev": 613,
      "od": 614,
      "ous": 615,
      "em": 616,
      "ph": 617,
      "el": 618,
      "ud": 619,
      "mon": 620,
      "mar": 621,
      "ated": 622,
      "wo": 623,
      "rep": 624,
      "ia": 625,
      "you": 626,
      "ish": 627,
      "ree": 628,
      "ong": 629,
      "now": 630,
      "iv": 631,
      "old": 632,
      "which": 633,
      "ck": 634,
      "say": 635,
      "ace": 636,
      "more": 637,
      "ma": 638,
      "pp": 639,
      "cr": 640,
      "other": 641,
      "age": 642,
      "ame": 643,
      "about": 644,
      "ans": 645,
      "est": 646,
      "ind": 647,
      "ren": 648,
      "ally": 649,
      "way": 650,
      "over": 651,
      "cent": 652,
      "some": 653,
      "ict": 654,
      "ary": 655,
      "ass": 656,
      "would": 657,
      "him": 658,
      "str": 659,
      "there": 660,
      "ile": 661,
      "fir": 662,
      "its": 663,
      "dis": 664,
      "part": 665,
      "att": 666,
      "my": 667,
      "pres": 668,
      "peop": 669,
      "av": 670,
      "coun": 671,
      "people": 672,
      "jo": 673,
      "very": 674,
      ".'": 675,
      "work": 676,
      "ite": 677,
      "also": 678,
      "cor": 679,
      "ence": 680,
      "two": 681,
      "ident": 682,
      "201": 683,
      "ild": 684,
      "ty": 685,
      "ions": 686,
      "than": 687,
      "just": 688,
      "ach": 689,
      "car": 690,
      "form": 691,
      "last": 692,
      "ser": 693,
      "ho": 694,
      "time": 695,
      "ue": 696,
      "ign": 697,
      "any": 698,
      "fore": 699,
      "ta": 700,
      "land": 701,
      "min": 702,
      ",\"": 703,
      "cont": 704,
      "ted": 705,
      "si": 706,
      "comp": 707,
      "air": 708,
      "ting": 709,
      "ure": 710,
      "able": 711,
      "into": 712,
      "ff": 713,
      "pre": 714,
      "med": 715,
      "mr": 716,
      "thing": 717,
      "cre": 718,
      "inter": 719,
      "ily": 720,
      "fr": 721,
      "--": 722,
      "tra": 723,
      "don": 724,
      "ip": 725,
      "like": 726,
      "them": 727,
      "ek": 728,
      "police": 729,
      "ick": 730,
      "son": 731,
      "get": 732,
      "play": 733,
      "ance": 734,
      "what": 735,
      "first": 736,
      "ft": 737,
      "told": 738,
      "could": 739,
      "back": 740,
      "ade": 741,
      "ble": 742,
      "years": 743,
      "ian": 744,
      "hel": 745,
      "ger": 746,
      "cau": 747,
      "ry": 748,
      "fam": 749,
      "ved": 750,
      "fl": 751,
      "down": 752,
      "ning": 753,
      "amp": 754,
      "leg": 755,
      "how": 756,
      ".\"": 757,
      "ors": 758,
      "spe": 759,
      "des": 760,
      "gu": 761,
      "pos": 762,
      "19": 763,
      "ire": 764,
      "mis": 765,
      "ubl": 766,
      "row": 767,
      "ving": 768,
      "ase": 769,
      "ink": 770,
      "ton": 771,
      "ater": 772,
      "before": 773,
      "used": 774,
      "col": 775,
      "home": 776,
      "ath": 777,
      "par": 778,
      "ens": 779,
      "child": 780,
      "week": 781,
      "offic": 782,
      "tur": 783,
      "under": 784,
      "low": 785,
      "sy": 786,
      "show": 787,
      "cause": 788,
      "again": 789,
      "dr": 790,
      "ful": 791,
      "most": 792,
      "being": 793,
      "where": 794,
      "call": 795,
      "ical": 796,
      "char": 797,
      "ations": 798,
      "fa": 799,
      "ster": 800,
      "tri": 801,
      "while": 802,
      "ned": 803,
      "sur": 804,
      "enc": 805,
      "ious": 806,
      "eng": 807,
      "cord": 808,
      "world": 809,
      "ep": 810,
      "side": 811,
      "cho": 812,
      "cur": 813,
      "add": 814,
      "cour": 815,
      "try": 816,
      "wom": 817,
      "did": 818,
      ",'": 819,
      "found": 820,
      "ition": 821,
      "000": 822,
      "che": 823,
      "amer": 824,
      "sel": 825,
      "iz": 826,
      "ates": 827,
      "cond": 828,
      "ash": 829,
      "miss": 830,
      "uring": 831,
      "state": 832,
      "says": 833,
      "may": 834,
      "fin": 835,
      "three": 836,
      "because": 837,
      "nation": 838,
      "ory": 839,
      "publ": 840,
      "oup": 841,
      "200": 842,
      "look": 843,
      "ital": 844,
      "bu": 845,
      "reat": 846,
      "ited": 847,
      "comm": 848,
      "left": 849,
      "ob": 850,
      "ction": 851,
      "only": 852,
      "ang": 853,
      "nor": 854,
      "month": 855,
      "mber": 856,
      "atch": 857,
      "ss": 858,
      "int": 859,
      "war": 860,
      "vis": 861,
      "ear": 862,
      "ince": 863,
      "ms": 864,
      "incl": 865,
      "family": 866,
      "bet": 867,
      "head": 868,
      "report": 869,
      "mill": 870,
      "come": 871,
      "tak": 872,
      "then": 873,
      "vers": 874,
      "made": 875,
      "during": 876,
      "pt": 877,
      "bar": 878,
      "thr": 879,
      "cla": 880,
      "du": 881,
      "ured": 882,
      "ating": 883,
      "cted": 884,
      "nn": 885,
      "life": 886,
      "led": 887,
      "even": 888,
      "lead": 889,
      "ress": 890,
      "fri": 891,
      "right": 892,
      "read": 893,
      "cer": 894,
      "many": 895,
      "reg": 896,
      "ug": 897,
      "cess": 898,
      "set": 899,
      "ced": 900,
      "cial": 901,
      "cal": 902,
      "rest": 903,
      "je": 904,
      "cnn": 905,
      "mil": 906,
      "kill": 907,
      "cle": 908,
      "every": 909,
      "port": 910,
      "ents": 911,
      "against": 912,
      "friend": 913,
      "cut": 914,
      "though": 915,
      "well": 916,
      "vide": 917,
      "als": 918,
      "ward": 919,
      "want": 920,
      "ves": 921,
      "ters": 922,
      "pict": 923,
      "ef": 924,
      "vie": 925,
      "help": 926,
      "hou": 927,
      "law": 928,
      "through": 929,
      "alk": 930,
      "appe": 931,
      "long": 932,
      "gover": 933,
      "claim": 934,
      "court": 935,
      "ca": 936,
      "ose": 937,
      "bro": 938,
      "ities": 939,
      "put": 940,
      "og": 941,
      "ub": 942,
      "ise": 943,
      "national": 944,
      "ins": 945,
      "test": 946,
      "includ": 947,
      "ner": 948,
      "les": 949,
      "cap": 950,
      "ged": 951,
      "clo": 952,
      "sen": 953,
      "ever": 954,
      "ange": 955,
      "children": 956,
      "ham": 957,
      "house": 958,
      "ste": 959,
      "dy": 960,
      "see": 961,
      "four": 962,
      "use": 963,
      "pers": 964,
      "high": 965,
      "dec": 966,
      "around": 967,
      "bur": 968,
      "make": 969,
      "fer": 970,
      "ten": 971,
      "president": 972,
      "vest": 973,
      "..": 974,
      "tain": 975,
      "ann": 976,
      ".’": 977,
      "know": 978,
      "et": 979,
      "bre": 980,
      "ask": 981,
      "team": 982,
      "scho": 983,
      "mor": 984,
      "uch": 985,
      "arch": 986,
      "line": 987,
      "beli": 988,
      "ased": 989,
      "ces": 990,
      "since": 991,
      "school": 992,
      "self": 993,
      "million": 994,
      "cording": 995,
      "supp": 996,
      "take": 997,
      "govern": 998,
      "10": 999,
      "ama": 1000,
      "need": 1001,
      "vic": 1002,
      "fol": 1003,
      "ican": 1004,
      "brit": 1005,
      "mi": 1006,
      "going": 1007,
      "night": 1008,
      "rel": 1009,
      "bor": 1010,
      "plan": 1011,
      "ffer": 1012,
      "aren": 1013,
      "ason": 1014,
      "sou": 1015,
      "think": 1016,
      "ban": 1017,
      "hand": 1018,
      "main": 1019,
      "invest": 1020,
      "win": 1021,
      "ven": 1022,
      "face": 1023,
      "ments": 1024,
      "let": 1025,
      "city": 1026,
      "gan": 1027,
      "hu": 1028,
      "mother": 1029,
      "video": 1030,
      "came": 1031,
      "men": 1032,
      "according": 1033,
      "lon": 1034,
      "those": 1035,
      "still": 1036,
      "bed": 1037,
      "ail": 1038,
      "attack": 1039,
      "view": 1040,
      "should": 1041,
      "ult": 1042,
      "gen": 1043,
      "government": 1044,
      "mp": 1045,
      "ied": 1046,
      "happ": 1047,
      "former": 1048,
      "stand": 1049,
      "xt": 1050,
      "group": 1051,
      "start": 1052,
      "ale": 1053,
      "your": 1054,
      "follow": 1055,
      "app": 1056,
      "ings": 1057,
      "bus": 1058,
      "official": 1059,
      "death": 1060,
      "ures": 1061,
      "ls": 1062,
      "oc": 1063,
      "esday": 1064,
      "run": 1065,
      "ared": 1066,
      "har": 1067,
      "pon": 1068,
      "ished": 1069,
      "def": 1070,
      "alth": 1071,
      "mer": 1072,
      "near": 1073,
      "ris": 1074,
      "sun": 1075,
      "mak": 1076,
      "vi": 1077,
      "ney": 1078,
      "less": 1079,
      "sho": 1080,
      "minist": 1081,
      "ual": 1082,
      "good": 1083,
      "uk": 1084,
      "cover": 1085,
      "got": 1086,
      "exp": 1087,
      "another": 1088,
      "country": 1089,
      "vol": 1090,
      "ball": 1091,
      "united": 1092,
      "sign": 1093,
      "care": 1094,
      "ross": 1095,
      "second": 1096,
      "called": 1097,
      "pri": 1098,
      "hol": 1099,
      "these": 1100,
      "youn": 1101,
      "und": 1102,
      "ley": 1103,
      "book": 1104,
      "public": 1105,
      "ames": 1106,
      "gir": 1107,
      "star": 1108,
      "dri": 1109,
      "stud": 1110,
      "ists": 1111,
      "gest": 1112,
      "such": 1113,
      "ween": 1114,
      "fil": 1115,
      "person": 1116,
      "lar": 1117,
      "sha": 1118,
      "investig": 1119,
      "sent": 1120,
      "between": 1121,
      "ele": 1122,
      "den": 1123,
      "much": 1124,
      "eu": 1125,
      "real": 1126,
      "search": 1127,
      "bs": 1128,
      "giv": 1129,
      "women": 1130,
      "sing": 1131,
      "sex": 1132,
      "including": 1133,
      "ave": 1134,
      "open": 1135,
      "far": 1136,
      "place": 1137,
      "top": 1138,
      "gl": 1139,
      "unt": 1140,
      "pho": 1141,
      "hosp": 1142,
      "acc": 1143,
      "sk": 1144,
      "dan": 1145,
      "body": 1146,
      "ular": 1147,
      "kn": 1148,
      "num": 1149,
      "pass": 1150,
      "ship": 1151,
      "sm": 1152,
      "hospital": 1153,
      "thor": 1154,
      "gra": 1155,
      "sol": 1156,
      "big": 1157,
      "camp": 1158,
      "five": 1159,
      "ina": 1160,
      "roll": 1161,
      "south": 1162,
      "wr": 1163,
      "both": 1164,
      "today": 1165,
      "vice": 1166,
      "ised": 1167,
      "ics": 1168,
      "rist": 1169,
      "post": 1170,
      "times": 1171,
      "took": 1172,
      "quest": 1173,
      "next": 1174,
      "lt": 1175,
      "health": 1176,
      "ime": 1177,
      "foot": 1178,
      "uni": 1179,
      "pat": 1180,
      "later": 1181,
      "hour": 1182,
      "ants": 1183,
      "hal": 1184,
      "press": 1185,
      "wed": 1186,
      "2013": 1187,
      "days": 1188,
      "ined": 1189,
      "room": 1190,
      "tle": 1191,
      "sim": 1192,
      "sto": 1193,
      "woman": 1194,
      "aring": 1195,
      "wa": 1196,
      "50": 1197,
      "ket": 1198,
      "photo": 1199,
      "never": 1200,
      "sure": 1201,
      "away": 1202,
      "pa": 1203,
      "ys": 1204,
      "mur": 1205,
      "case": 1206,
      "respon": 1207,
      "pect": 1208,
      "london": 1209,
      "wit": 1210,
      "exper": 1211,
      "ines": 1212,
      "ative": 1213,
      "blo": 1214,
      "pay": 1215,
      "gre": 1216,
      "sus": 1217,
      "val": 1218,
      "went": 1219,
      "pictured": 1220,
      "alleg": 1221,
      "30": 1222,
      "lit": 1223,
      "bers": 1224,
      "mid": 1225,
      "ica": 1226,
      "io": 1227,
      "too": 1228,
      "oper": 1229,
      "oney": 1230,
      "inc": 1231,
      "west": 1232,
      "here": 1233,
      "seen": 1234,
      "young": 1235,
      "contin": 1236,
      "olog": 1237,
      "ness": 1238,
      "added": 1239,
      "news": 1240,
      "father": 1241,
      "iday": 1242,
      "months": 1243,
      "six": 1244,
      "tre": 1245,
      "find": 1246,
      "author": 1247,
      "leag": 1248,
      "rele": 1249,
      "bill": 1250,
      "mit": 1251,
      "eral": 1252,
      "12": 1253,
      "orts": 1254,
      "ison": 1255,
      "vel": 1256,
      "ks": 1257,
      "fect": 1258,
      "augh": 1259,
      "using": 1260,
      "joh": 1261,
      "band": 1262,
      "11": 1263,
      "net": 1264,
      "does": 1265,
      "ctor": 1266,
      "ork": 1267,
      "pow": 1268,
      "bra": 1269,
      "ered": 1270,
      "ield": 1271,
      "same": 1272,
      "won": 1273,
      "clear": 1274,
      "ped": 1275,
      "uary": 1276,
      "dire": 1277,
      "ges": 1278,
      "king": 1279,
      "died": 1280,
      "ually": 1281,
      "fire": 1282,
      "taken": 1283,
      "reported": 1284,
      "support": 1285,
      "ended": 1286,
      "ju": 1287,
      "turn": 1288,
      "rus": 1289,
      "que": 1290,
      "da": 1291,
      "fac": 1292,
      "ights": 1293,
      "ps": 1294,
      "watch": 1295,
      "ben": 1296,
      "inj": 1297,
      "ze": 1298,
      "ury": 1299,
      "obama": 1300,
      "issu": 1301,
      "york": 1302,
      "arrest": 1303,
      "bab": 1304,
      "atur": 1305,
      "wn": 1306,
      "stri": 1307,
      "move": 1308,
      "2012": 1309,
      "ways": 1310,
      "spok": 1311,
      "club": 1312,
      "vict": 1313,
      "best": 1314,
      "lot": 1315,
      "ility": 1316,
      "allow": 1317,
      "ago": 1318,
      "sever": 1319,
      "dav": 1320,
      "euro": 1321,
      "john": 1322,
      "mic": 1323,
      "tu": 1324,
      "lu": 1325,
      "produ": 1326,
      "18": 1327,
      "wife": 1328,
      "north": 1329,
      "15": 1330,
      "ford": 1331,
      "tell": 1332,
      "prev": 1333,
      "ling": 1334,
      "ready": 1335,
      "water": 1336,
      "ci": 1337,
      "polit": 1338,
      "milit": 1339,
      "prof": 1340,
      "rent": 1341,
      "ired": 1342,
      "aff": 1343,
      "really": 1344,
      "killed": 1345,
      "wil": 1346,
      "cup": 1347,
      "bal": 1348,
      "late": 1349,
      "shot": 1350,
      "ency": 1351,
      "cy": 1352,
      "season": 1353,
      "cri": 1354,
      "feel": 1355,
      "unch": 1356,
      "met": 1357,
      "mat": 1358,
      "recent": 1359,
      "ref": 1360,
      "league": 1361,
      "bi": 1362,
      "pop": 1363,
      "mc": 1364,
      "daugh": 1365,
      "light": 1366,
      "jud": 1367,
      "whe": 1368,
      "game": 1369,
      "ages": 1370,
      "rece": 1371,
      "didn": 1372,
      "mem": 1373,
      "stop": 1374,
      "gy": 1375,
      "half": 1376,
      "ones": 1377,
      "walk": 1378,
      "remain": 1379,
      "cu": 1380,
      "cost": 1381,
      "number": 1382,
      "known": 1383,
      "paren": 1384,
      "mus": 1385,
      "ah": 1386,
      "urs": 1387,
      "commun": 1388,
      "sum": 1389,
      "incre": 1390,
      "christ": 1391,
      "jor": 1392,
      "hit": 1393,
      "jan": 1394,
      "ened": 1395,
      "ko": 1396,
      "gun": 1397,
      "list": 1398,
      "sub": 1399,
      "roy": 1400,
      "stru": 1401,
      "ific": 1402,
      "keep": 1403,
      "secur": 1404,
      "minut": 1405,
      "build": 1406,
      "fact": 1407,
      "money": 1408,
      "sit": 1409,
      "ought": 1410,
      "pped": 1411,
      "published": 1412,
      "field": 1413,
      "break": 1414,
      "asked": 1415,
      "girl": 1416,
      "white": 1417,
      "rown": 1418,
      "cas": 1419,
      "company": 1420,
      "ds": 1421,
      "iness": 1422,
      "ending": 1423,
      "lim": 1424,
      "appear": 1425,
      "england": 1426,
      "having": 1427,
      "bit": 1428,
      "victim": 1429,
      "however": 1430,
      "boy": 1431,
      "british": 1432,
      "states": 1433,
      "reve": 1434,
      "bir": 1435,
      "fron": 1436,
      "differ": 1437,
      "few": 1438,
      "cons": 1439,
      "spokes": 1440,
      "sea": 1441,
      "mal": 1442,
      "dra": 1443,
      "without": 1444,
      "sw": 1445,
      "fort": 1446,
      "security": 1447,
      "contro": 1448,
      "until": 1449,
      "great": 1450,
      "each": 1451,
      "stem": 1452,
      "cast": 1453,
      "little": 1454,
      "hold": 1455,
      "van": 1456,
      "talk": 1457,
      "black": 1458,
      "vid": 1459,
      "manag": 1460,
      "eve": 1461,
      "ject": 1462,
      "following": 1463,
      "mail": 1464,
      "record": 1465,
      "ining": 1466,
      "'.": 1467,
      "na": 1468,
      "party": 1469,
      "phone": 1470,
      "believ": 1471,
      "univers": 1472,
      "officials": 1473,
      "stree": 1474,
      "sible": 1475,
      "emp": 1476,
      "american": 1477,
      "hours": 1478,
      "16": 1479,
      "past": 1480,
      "deal": 1481,
      "order": 1482,
      "nam": 1483,
      "del": 1484,
      "hard": 1485,
      "pected": 1486,
      "dead": 1487,
      "thought": 1488,
      "sunday": 1489,
      "ground": 1490,
      "iting": 1491,
      "turned": 1492,
      "ried": 1493,
      "vir": 1494,
      "international": 1495,
      "colle": 1496,
      "daughter": 1497,
      "upd": 1498,
      "indi": 1499,
      "free": 1500,
      "pet": 1501,
      "point": 1502,
      "given": 1503,
      "camer": 1504,
      "ga": 1505,
      "local": 1506,
      "proble": 1507,
      "power": 1508,
      "safe": 1509,
      "sal": 1510,
      "hot": 1511,
      "resu": 1512,
      "tal": 1513,
      "mark": 1514,
      "invol": 1515,
      "ons": 1516,
      "saying": 1517,
      "liam": 1518,
      "close": 1519,
      "hist": 1520,
      "comple": 1521,
      "ately": 1522,
      "prom": 1523,
      "14": 1524,
      "friends": 1525,
      "monday": 1526,
      "ient": 1527,
      "appro": 1528,
      "secre": 1529,
      "os": 1530,
      "drug": 1531,
      "coup": 1532,
      "working": 1533,
      "viol": 1534,
      "members": 1535,
      "prison": 1536,
      "ror": 1537,
      "idence": 1538,
      "park": 1539,
      "lier": 1540,
      "business": 1541,
      "something": 1542,
      "system": 1543,
      "europe": 1544,
      "ional": 1545,
      "alleged": 1546,
      "across": 1547,
      "parents": 1548,
      "mes": 1549,
      "tuesday": 1550,
      "ats": 1551,
      "desp": 1552,
      "front": 1553,
      "velo": 1554,
      "cus": 1555,
      "human": 1556,
      "hus": 1557,
      "david": 1558,
      "ffic": 1559,
      "ene": 1560,
      "coming": 1561,
      "fur": 1562,
      "road": 1563,
      "champ": 1564,
      "17": 1565,
      "aign": 1566,
      "fight": 1567,
      "town": 1568,
      "campaign": 1569,
      "flo": 1570,
      "bul": 1571,
      "match": 1572,
      "east": 1573,
      "fail": 1574,
      "vo": 1575,
      "treat": 1576,
      "love": 1577,
      "taking": 1578,
      "area": 1579,
      "along": 1580,
      "depart": 1581,
      "descri": 1582,
      "statement": 1583,
      "murder": 1584,
      "stral": 1585,
      "reveal": 1586,
      "friday": 1587,
      "trans": 1588,
      "ism": 1589,
      "action": 1590,
      "ple": 1591,
      "austral": 1592,
      "ken": 1593,
      "university": 1594,
      "tour": 1595,
      "wood": 1596,
      "ier": 1597,
      "hind": 1598,
      "service": 1599,
      "current": 1600,
      "une": 1601,
      "office": 1602,
      "inform": 1603,
      "suffer": 1604,
      "lam": 1605,
      "couple": 1606,
      "secret": 1607,
      "cele": 1608,
      "fre": 1609,
      "suc": 1610,
      "updated": 1611,
      "develo": 1612,
      "already": 1613,
      "research": 1614,
      "ives": 1615,
      "military": 1616,
      "change": 1617,
      "minister": 1618,
      "13": 1619,
      "several": 1620,
      "satur": 1621,
      "liver": 1622,
      "hor": 1623,
      "pen": 1624,
      "despite": 1625,
      "tail": 1626,
      "gram": 1627,
      "concer": 1628,
      "speak": 1629,
      "rid": 1630,
      "online": 1631,
      "mission": 1632,
      "mom": 1633,
      "ank": 1634,
      "making": 1635,
      "25": 1636,
      "fall": 1637,
      "celebr": 1638,
      "force": 1639,
      "event": 1640,
      "tar": 1641,
      "crit": 1642,
      "decis": 1643,
      "feat": 1644,
      "covered": 1645,
      "earlier": 1646,
      "199": 1647,
      "outside": 1648,
      "key": 1649,
      "once": 1650,
      "always": 1651,
      "wedn": 1652,
      "wednesday": 1653,
      "fed": 1654,
      "poin": 1655,
      "major": 1656,
      "believe": 1657,
      "why": 1658,
      "authorities": 1659,
      "early": 1660,
      "round": 1661,
      "crim": 1662,
      "ically": 1663,
      "whether": 1664,
      "incident": 1665,
      "food": 1666,
      "mot": 1667,
      "design": 1668,
      "commit": 1669,
      "among": 1670,
      "prote": 1671,
      "saturday": 1672,
      "threat": 1673,
      "weeks": 1674,
      "behind": 1675,
      "give": 1676,
      "chang": 1677,
      "grand": 1678,
      "sug": 1679,
      "final": 1680,
      "ived": 1681,
      "inst": 1682,
      "dog": 1683,
      "mas": 1684,
      "ying": 1685,
      "dam": 1686,
      "organ": 1687,
      "ba": 1688,
      "started": 1689,
      "live": 1690,
      "super": 1691,
      "legal": 1692,
      "husband": 1693,
      "wanted": 1694,
      "arri": 1695,
      "secut": 1696,
      "gress": 1697,
      "saw": 1698,
      "lost": 1699,
      "dro": 1700,
      "pal": 1701,
      "officers": 1702,
      "...": 1703,
      "ming": 1704,
      "tech": 1705,
      ",’": 1706,
      "ark": 1707,
      "thurs": 1708,
      "heard": 1709,
      "thir": 1710,
      "rob": 1711,
      "small": 1712,
      "inal": 1713,
      "san": 1714,
      "become": 1715,
      "thursday": 1716,
      "sch": 1717,
      "looking": 1718,
      "cra": 1719,
      "mag": 1720,
      "member": 1721,
      "ron": 1722,
      "ified": 1723,
      "tax": 1724,
      "ration": 1725,
      "ude": 1726,
      "claims": 1727,
      "class": 1728,
      "different": 1729,
      "),": 1730,
      "chester": 1731,
      "chie": 1732,
      "iously": 1733,
      "comes": 1734,
      "ret": 1735,
      "emer": 1736,
      "cust": 1737,
      "ring": 1738,
      "mean": 1739,
      "plac": 1740,
      "full": 1741,
      "hing": 1742,
      "announ": 1743,
      "ott": 1744,
      "40": 1745,
      "released": 1746,
      "media": 1747,
      "ker": 1748,
      "football": 1749,
      "ized": 1750,
      "lab": 1751,
      "lan": 1752,
      "heart": 1753,
      "things": 1754,
      "least": 1755,
      "might": 1756,
      "seem": 1757,
      "arrested": 1758,
      "must": 1759,
      "success": 1760,
      "better": 1761,
      "held": 1762,
      "ator": 1763,
      "seven": 1764,
      "proper": 1765,
      "dep": 1766,
      "likely": 1767,
      "stay": 1768,
      "short": 1769,
      "morning": 1770,
      "toge": 1771,
      "together": 1772,
      "cked": 1773,
      "scroll": 1774,
      "players": 1775,
      "board": 1776,
      "staff": 1777,
      "pool": 1778,
      "spokesman": 1779,
      "social": 1780,
      "ators": 1781,
      "consid": 1782,
      "name": 1783,
      "ention": 1784,
      "ler": 1785,
      "pain": 1786,
      "sport": 1787,
      "claimed": 1788,
      "100": 1789,
      "chief": 1790,
      "mrs": 1791,
      "trying": 1792,
      "afr": 1793,
      "rad": 1794,
      "department": 1795,
      "mand": 1796,
      "wards": 1797,
      "istan": 1798,
      "sty": 1799,
      "vot": 1800,
      "march": 1801,
      "prosecut": 1802,
      "kid": 1803,
      "program": 1804,
      "shows": 1805,
      "hope": 1806,
      "judge": 1807,
      "los": 1808,
      "priv": 1809,
      "britain": 1810,
      "gin": 1811,
      "conom": 1812,
      "econom": 1813,
      "qual": 1814,
      "based": 1815,
      "pot": 1816,
      "ord": 1817,
      "gust": 1818,
      "stu": 1819,
      "rul": 1820,
      "grow": 1821,
      "ience": 1822,
      "gn": 1823,
      "expected": 1824,
      "sed": 1825,
      "street": 1826,
      "tro": 1827,
      "others": 1828,
      "bel": 1829,
      "emplo": 1830,
      "dou": 1831,
      "information": 1832,
      "yet": 1833,
      "investigation": 1834,
      "ided": 1835,
      "wind": 1836,
      "ars": 1837,
      "visit": 1838,
      "continu": 1839,
      "import": 1840,
      "brother": 1841,
      "dece": 1842,
      "tem": 1843,
      "sco": 1844,
      "ians": 1845,
      "ping": 1846,
      "2011": 1847,
      "stor": 1848,
      "goal": 1849,
      "january": 1850,
      "squ": 1851,
      "ging": 1852,
      "ira": 1853,
      "launch": 1854,
      "urch": 1855,
      "fun": 1856,
      "ution": 1857,
      "minutes": 1858,
      "ering": 1859,
      "syri": 1860,
      "fund": 1861,
      "partic": 1862,
      "tract": 1863,
      "special": 1864,
      "moved": 1865,
      "protest": 1866,
      "conf": 1867,
      "job": 1868,
      "done": 1869,
      "due": 1870,
      "posed": 1871,
      "terror": 1872,
      "jour": 1873,
      "manchester": 1874,
      "ising": 1875,
      "decision": 1876,
      "himself": 1877,
      "ran": 1878,
      "suggest": 1879,
      "reach": 1880,
      "graph": 1881,
      "aged": 1882,
      "ior": 1883,
      "third": 1884,
      "hom": 1885,
      "za": 1886,
      "began": 1887,
      "strong": 1888,
      "wro": 1889,
      "ards": 1890,
      "ential": 1891,
      "interest": 1892,
      "geor": 1893,
      "large": 1894,
      "wrote": 1895,
      "revealed": 1896,
      "sell": 1897,
      "mad": 1898,
      "anim": 1899,
      "aw": 1900,
      "position": 1901,
      "doing": 1902,
      "rich": 1903,
      "exe": 1904,
      "count": 1905,
      "24": 1906,
      "acy": 1907,
      "shop": 1908,
      "ute": 1909,
      "almost": 1910,
      "getting": 1911,
      "bad": 1912,
      "fell": 1913,
      "facebook": 1914,
      "cept": 1915,
      "messa": 1916,
      "temp": 1917,
      "eight": 1918,
      "techn": 1919,
      "evidence": 1920,
      "republ": 1921,
      "jail": 1922,
      "nove": 1923,
      "cil": 1924,
      "wal": 1925,
      "ream": 1926,
      "rac": 1927,
      "enough": 1928,
      "shoot": 1929,
      "hop": 1930,
      "nal": 1931,
      "aut": 1932,
      "fi": 1933,
      "became": 1934,
      "sep": 1935,
      "ns": 1936,
      "ugh": 1937,
      "accused": 1938,
      "possible": 1939,
      "admit": 1940,
      "micha": 1941,
      "yester": 1942,
      "demo": 1943,
      "return": 1944,
      "site": 1945,
      "ric": 1946,
      "yesterday": 1947,
      "political": 1948,
      "jack": 1949,
      "tv": 1950,
      "daily": 1951,
      "tember": 1952,
      "michael": 1953,
      "september": 1954,
      "icans": 1955,
      "phil": 1956,
      "fig": 1957,
      "ances": 1958,
      "ences": 1959,
      "bb": 1960,
      "charged": 1961,
      "host": 1962,
      "dest": 1963,
      "profess": 1964,
      "ana": 1965,
      "execut": 1966,
      "played": 1967,
      "baby": 1968,
      "mart": 1969,
      "teen": 1970,
      "batt": 1971,
      "az": 1972,
      "ense": 1973,
      "interview": 1974,
      "appeared": 1975,
      "atic": 1976,
      "uc": 1977,
      "fit": 1978,
      "officer": 1979,
      "fans": 1980,
      "fut": 1981,
      "william": 1982,
      "spot": 1983,
      "november": 1984,
      "brid": 1985,
      "trial": 1986,
      "december": 1987,
      "medical": 1988,
      "games": 1989,
      "60": 1990,
      "inside": 1991,
      "vices": 1992,
      "rights": 1993,
      "ands": 1994,
      "trad": 1995,
      "octo": 1996,
      "wel": 1997,
      "strict": 1998,
      "bol": 1999,
      "charges": 2000,
      "gar": 2001,
      "lives": 2002,
      "director": 2003,
      "october": 2004,
      "democr": 2005,
      "22": 2006,
      "bas": 2007,
      "reason": 2008,
      "effect": 2009,
      "control": 2010,
      "film": 2011,
      "sam": 2012,
      "’.": 2013,
      "often": 2014,
      "21": 2015,
      "august": 2016,
      "born": 2017,
      "ctors": 2018,
      "fully": 2019,
      "june": 2020,
      "ology": 2021,
      "neigh": 2022,
      "spent": 2023,
      "further": 2024,
      "happened": 2025,
      "lin": 2026,
      "pul": 2027,
      "living": 2028,
      "stra": 2029,
      "assa": 2030,
      "beat": 2031,
      "lad": 2032,
      "repor": 2033,
      "manager": 2034,
      "sour": 2035,
      "scene": 2036,
      "ctions": 2037,
      "tried": 2038,
      "bon": 2039,
      "hi": 2040,
      "community": 2041,
      "ril": 2042,
      "county": 2043,
      "step": 2044,
      "within": 2045,
      "tom": 2046,
      "space": 2047,
      "future": 2048,
      "important": 2049,
      "china": 2050,
      "stead": 2051,
      "cru": 2052,
      "asso": 2053,
      "leader": 2054,
      "council": 2055,
      "ather": 2056,
      "question": 2057,
      "por": 2058,
      "hotel": 2059,
      "2010": 2060,
      "vision": 2061,
      "chall": 2062,
      "sn": 2063,
      "mig": 2064,
      "centre": 2065,
      "ium": 2066,
      "bom": 2067,
      "leave": 2068,
      "confir": 2069,
      "eas": 2070,
      "activ": 2071,
      "teach": 2072,
      "pan": 2073,
      "general": 2074,
      "miles": 2075,
      "ding": 2076,
      "aper": 2077,
      "term": 2078,
      "polic": 2079,
      "shire": 2080,
      "although": 2081,
      "bring": 2082,
      "premi": 2083,
      "crash": 2084,
      "washing": 2085,
      "involved": 2086,
      "abo": 2087,
      "famil": 2088,
      "webs": 2089,
      "tries": 2090,
      "described": 2091,
      "yes": 2092,
      "male": 2093,
      "believed": 2094,
      "july": 2095,
      "building": 2096,
      "ray": 2097,
      "story": 2098,
      "received": 2099,
      "tor": 2100,
      "vill": 2101,
      "dle": 2102,
      "history": 2103,
      "wall": 2104,
      "lear": 2105,
      "blood": 2106,
      "gave": 2107,
      "cali": 2108,
      "spec": 2109,
      "die": 2110,
      "ensive": 2111,
      "ny": 2112,
      "april": 2113,
      "civ": 2114,
      "relation": 2115,
      "cell": 2116,
      "conne": 2117,
      "kes": 2118,
      "thern": 2119,
      "kind": 2120,
      "james": 2121,
      "risk": 2122,
      "lish": 2123,
      "isis": 2124,
      "leaders": 2125,
      "associ": 2126,
      "23": 2127,
      "leav": 2128,
      "twit": 2129,
      "someone": 2130,
      "tru": 2131,
      "birth": 2132,
      "dress": 2133,
      "certain": 2134,
      "tit": 2135,
      "pick": 2136,
      "worth": 2137,
      "reports": 2138,
      "loc": 2139,
      "chance": 2140,
      "ram": 2141,
      "ening": 2142,
      "billion": 2143,
      "iraq": 2144,
      "rench": 2145,
      "rew": 2146,
      "complete": 2147,
      "doesn": 2148,
      "mee": 2149,
      "twitter": 2150,
      "lines": 2151,
      "ral": 2152,
      "comment": 2153,
      "writ": 2154,
      "process": 2155,
      "chel": 2156,
      "forward": 2157,
      "prime": 2158,
      "capt": 2159,
      "royal": 2160,
      "player": 2161,
      "thous": 2162,
      "mass": 2163,
      "dist": 2164,
      "travel": 2165,
      "bank": 2166,
      "summer": 2167,
      "lying": 2168,
      "lie": 2169,
      "ston": 2170,
      "bour": 2171,
      "ribut": 2172,
      "orney": 2173,
      "america": 2174,
      "series": 2175,
      "center": 2176,
      "attorney": 2177,
      "hig": 2178,
      "docu": 2179,
      "ony": 2180,
      "clin": 2181,
      "wide": 2182,
      "cancer": 2183,
      "tee": 2184,
      "named": 2185,
      "sil": 2186,
      "training": 2187,
      "issue": 2188,
      "civil": 2189,
      "imp": 2190,
      "diffic": 2191,
      "cross": 2192,
      "nothing": 2193,
      "ilar": 2194,
      "ush": 2195,
      "ahead": 2196,
      "nearly": 2197,
      "custom": 2198,
      "guil": 2199,
      "washington": 2200,
      "ded": 2201,
      "sl": 2202,
      "glo": 2203,
      "gener": 2204,
      "gold": 2205,
      "island": 2206,
      "ru": 2207,
      "sia": 2208,
      "course": 2209,
      "playing": 2210,
      "drink": 2211,
      "popular": 2212,
      "2014": 2213,
      "cli": 2214,
      "prep": 2215,
      "icle": 2216,
      "ino": 2217,
      "happy": 2218,
      "itions": 2219,
      "nia": 2220,
      "students": 2221,
      "ico": 2222,
      "detail": 2223,
      "bert": 2224,
      "cks": 2225,
      "flight": 2226,
      "market": 2227,
      "arm": 2228,
      "forced": 2229,
      "resident": 2230,
      "federal": 2231,
      "repres": 2232,
      "spir": 2233,
      "fast": 2234,
      "decl": 2235,
      "tw": 2236,
      "anti": 2237,
      "itch": 2238,
      "box": 2239,
      "reco": 2240,
      "lou": 2241,
      "198": 2242,
      "hill": 2243,
      "ister": 2244,
      "sib": 2245,
      "califor": 2246,
      "provid": 2247,
      "anything": 2248,
      "common": 2249,
      "crime": 2250,
      "present": 2251,
      "admitted": 2252,
      "bag": 2253,
      "carry": 2254,
      "role": 2255,
      "susp": 2256,
      "secretary": 2257,
      "worked": 2258,
      "forces": 2259,
      "relationship": 2260,
      "quick": 2261,
      "defend": 2262,
      "veh": 2263,
      "wer": 2264,
      "convict": 2265,
      "febr": 2266,
      "february": 2267,
      "fav": 2268,
      "ices": 2269,
      "suit": 2270,
      "27": 2271,
      "vent": 2272,
      "soon": 2273,
      "wasn": 2274,
      "itive": 2275,
      "green": 2276,
      "nel": 2277,
      "study": 2278,
      "victims": 2279,
      "moment": 2280,
      "paid": 2281,
      "ides": 2282,
      "nine": 2283,
      "surv": 2284,
      "kore": 2285,
      "foreign": 2286,
      "vin": 2287,
      "bing": 2288,
      "hy": 2289,
      "hip": 2290,
      "mind": 2291,
      "deb": 2292,
      "ability": 2293,
      "station": 2294,
      "joy": 2295,
      "website": 2296,
      "orig": 2297,
      "gas": 2298,
      "gree": 2299,
      "26": 2300,
      "california": 2301,
      "personal": 2302,
      "expla": 2303,
      "serv": 2304,
      "pur": 2305,
      "church": 2306,
      "race": 2307,
      "plane": 2308,
      "treatment": 2309,
      "australia": 2310,
      "justice": 2311,
      "sess": 2312,
      "girls": 2313,
      "wrong": 2314,
      "28": 2315,
      "middle": 2316,
      "hur": 2317,
      "plans": 2318,
      "pie": 2319,
      "bri": 2320,
      "extre": 2321,
      "ination": 2322,
      "**": 2323,
      "thousands": 2324,
      "meeting": 2325,
      "dies": 2326,
      "huge": 2327,
      "ida": 2328,
      "french": 2329,
      "paul": 2330,
      "selves": 2331,
      "compla": 2332,
      "contribut": 2333,
      "liverpool": 2334,
      "chair": 2335,
      "announced": 2336,
      "chelsea": 2337,
      "non": 2338,
      "continue": 2339,
      "difficult": 2340,
      "guilty": 2341,
      "track": 2342,
      "sle": 2343,
      "countries": 2344,
      "recently": 2345,
      "medi": 2346,
      "condition": 2347,
      "similar": 2348,
      "ghan": 2349,
      "safety": 2350,
      "agency": 2351,
      "european": 2352,
      "uation": 2353,
      "champion": 2354,
      "compet": 2355,
      "ners": 2356,
      "init": 2357,
      "nat": 2358,
      "cir": 2359,
      "showed": 2360,
      "instead": 2361,
      "weight": 2362,
      "isra": 2363,
      "private": 2364,
      "',": 2365,
      "heav": 2366,
      "felt": 2367,
      "currently": 2368,
      "islam": 2369,
      "serious": 2370,
      "70": 2371,
      "allegedly": 2372,
      "looked": 2373,
      "problem": 2374,
      "caused": 2375,
      "brown": 2376,
      "picture": 2377,
      "coast": 2378,
      "pair": 2379,
      "everything": 2380,
      "understand": 2381,
      "tran": 2382,
      "2009": 2383,
      "sexual": 2384,
      "requ": 2385,
      "link": 2386,
      "tele": 2387,
      "makes": 2388,
      "lawy": 2389,
      "ext": 2390,
      "strug": 2391,
      "uses": 2392,
      "quar": 2393,
      "crow": 2394,
      "benef": 2395,
      "whose": 2396,
      "flu": 2397,
      "families": 2398,
      "photograph": 2399,
      "student": 2400,
      "ues": 2401,
      "problems": 2402,
      "witness": 2403,
      "running": 2404,
      "dom": 2405,
      "potential": 2406,
      "premier": 2407,
      "services": 2408,
      "sey": 2409,
      "violence": 2410,
      "everyone": 2411,
      "anyone": 2412,
      "500": 2413,
      "depend": 2414,
      "itor": 2415,
      "product": 2416,
      "expect": 2417,
      "enced": 2418,
      "decided": 2419,
      "missing": 2420,
      "hon": 2421,
      "const": 2422,
      "ese": 2423,
      "project": 2424,
      "educ": 2425,
      "lee": 2426,
      "level": 2427,
      "bridge": 2428,
      "knew": 2429,
      "gi": 2430,
      "door": 2431,
      "ik": 2432,
      "rif": 2433,
      "administ": 2434,
      "access": 2435,
      "rain": 2436,
      "var": 2437,
      "accident": 2438,
      "works": 2439,
      "lies": 2440,
      "danger": 2441,
      "means": 2442,
      "doctors": 2443,
      "cases": 2444,
      "suffered": 2445,
      "career": 2446,
      "iran": 2447,
      "leading": 2448,
      "afghan": 2449,
      "workers": 2450,
      "tex": 2451,
      "style": 2452,
      "immedi": 2453,
      "george": 2454,
      "latest": 2455,
      "compan": 2456,
      "brought": 2457,
      "above": 2458,
      "hood": 2459,
      "journal": 2460,
      "cing": 2461,
      "tic": 2462,
      "develop": 2463,
      "range": 2464,
      "soldi": 2465,
      "uries": 2466,
      "contact": 2467,
      "operation": 2468,
      "ference": 2469,
      "ane": 2470,
      "gone": 2471,
      "suspect": 2472,
      "mith": 2473,
      "alex": 2474,
      "music": 2475,
      "bat": 2476,
      "posted": 2477,
      "result": 2478,
      "charge": 2479,
      "demand": 2480,
      "fair": 2481,
      "coach": 2482,
      "include": 2483,
      "capital": 2484,
      "sand": 2485,
      "weekend": 2486,
      "29": 2487,
      "page": 2488,
      "failed": 2489,
      "ky": 2490,
      "ulation": 2491,
      "impro": 2492,
      "resul": 2493,
      "ata": 2494,
      "hun": 2495,
      "iety": 2496,
      "france": 2497,
      "assist": 2498,
      "weap": 2499,
      "represent": 2500,
      "ener": 2501,
      "ease": 2502,
      "ients": 2503,
      "remains": 2504,
      "sian": 2505,
      "flor": 2506,
      "bot": 2507,
      "uel": 2508,
      "property": 2509,
      "married": 2510,
      "protect": 2511,
      "aver": 2512,
      "han": 2513,
      "attacks": 2514,
      "christmas": 2515,
      "rup": 2516,
      "ither": 2517,
      "indust": 2518,
      "meas": 2519,
      "pm": 2520,
      "particular": 2521,
      "allowed": 2522,
      "hair": 2523,
      "plic": 2524,
      "cam": 2525,
      "hund": 2526,
      "bid": 2527,
      "rather": 2528,
      "cand": 2529,
      "scient": 2530,
      "experience": 2531,
      "twe": 2532,
      "mist": 2533,
      "election": 2534,
      "chan": 2535,
      "discovered": 2536,
      "equ": 2537,
      "arsen": 2538,
      "oly": 2539,
      ").": 2540,
      "pack": 2541,
      "hundred": 2542,
      "syria": 2543,
      "cking": 2544,
      "critic": 2545,
      "hands": 2546,
      "dev": 2547,
      "ots": 2548,
      "hearing": 2549,
      "sports": 2550,
      "needed": 2551,
      "moun": 2552,
      "aster": 2553,
      "ops": 2554,
      "2008": 2555,
      "labour": 2556,
      "snow": 2557,
      "avail": 2558,
      "gent": 2559,
      "soc": 2560,
      "killing": 2561,
      "zil": 2562,
      "calls": 2563,
      "smith": 2564,
      "elect": 2565,
      "patients": 2566,
      "airport": 2567,
      "beaut": 2568,
      "shooting": 2569,
      "seek": 2570,
      "bay": 2571,
      "mob": 2572,
      "senior": 2573,
      "attemp": 2574,
      "mex": 2575,
      "argu": 2576,
      "congress": 2577,
      "prince": 2578,
      "account": 2579,
      "themselves": 2580,
      "draw": 2581,
      "smo": 2582,
      "leaving": 2583,
      "placed": 2584,
      "wants": 2585,
      "cameron": 2586,
      "army": 2587,
      "gets": 2588,
      "opt": 2589,
      "bow": 2590,
      "touch": 2591,
      "va": 2592,
      "ades": 2593,
      "holiday": 2594,
      "oid": 2595,
      "fran": 2596,
      "eye": 2597,
      "central": 2598,
      "trust": 2599,
      "points": 2600,
      "train": 2601,
      "beach": 2602,
      "driver": 2603,
      "ounds": 2604,
      "pract": 2605,
      "fat": 2606,
      "buy": 2607,
      "percent": 2608,
      "policy": 2609,
      "apart": 2610,
      "spo": 2611,
      "stat": 2612,
      "marri": 2613,
      "ith": 2614,
      "kets": 2615,
      "helped": 2616,
      "broad": 2617,
      "comments": 2618,
      "price": 2619,
      "enter": 2620,
      "driving": 2621,
      "agree": 2622,
      "scre": 2623,
      "loss": 2624,
      "images": 2625,
      "message": 2626,
      "actually": 2627,
      "arrived": 2628,
      "africa": 2629,
      "wearing": 2630,
      "famous": 2631,
      "abuse": 2632,
      "else": 2633,
      "surpr": 2634,
      "brand": 2635,
      "stone": 2636,
      "termin": 2637,
      "raised": 2638,
      "russia": 2639,
      "base": 2640,
      "bbc": 2641,
      "fra": 2642,
      "kept": 2643,
      "oud": 2644,
      "ilt": 2645,
      "store": 2646,
      "discus": 2647,
      "idea": 2648,
      "giving": 2649,
      "deep": 2650,
      "earth": 2651,
      "finan": 2652,
      "available": 2653,
      "ery": 2654,
      "liber": 2655,
      "express": 2656,
      "commission": 2657,
      "cat": 2658,
      "dol": 2659,
      "looks": 2660,
      "oura": 2661,
      "chines": 2662,
      "pil": 2663,
      "jer": 2664,
      "weather": 2665,
      "address": 2666,
      "gency": 2667,
      "thom": 2668,
      "sister": 2669,
      "pictures": 2670,
      "injuries": 2671,
      "contain": 2672,
      "hear": 2673,
      "45": 2674,
      "release": 2675,
      "condu": 2676,
      "single": 2677,
      "union": 2678,
      "asing": 2679,
      "perform": 2680,
      "image": 2681,
      "issues": 2682,
      "criminal": 2683,
      "trave": 2684,
      "situation": 2685,
      "dete": 2686,
      "fla": 2687,
      "confirmed": 2688,
      "groups": 2689,
      "itional": 2690,
      "lied": 2691,
      "sky": 2692,
      "battle": 2693,
      "cit": 2694,
      "couldn": 2695,
      "eli": 2696,
      "injured": 2697,
      "speaking": 2698,
      "olymp": 2699,
      "adv": 2700,
      "dut": 2701,
      "berg": 2702,
      "firm": 2703,
      "sold": 2704,
      "boss": 2705,
      "surve": 2706,
      "simp": 2707,
      "russian": 2708,
      "kick": 2709,
      "jap": 2710,
      "amoun": 2711,
      "needs": 2712,
      "begin": 2713,
      "areas": 2714,
      "americans": 2715,
      "stage": 2716,
      "mental": 2717,
      "craft": 2718,
      "florida": 2719,
      "lor": 2720,
      "atives": 2721,
      "extra": 2722,
      "brazil": 2723,
      "ght": 2724,
      "model": 2725,
      "caught": 2726,
      "ore": 2727,
      "immig": 2728,
      "separ": 2729,
      "iel": 2730,
      "returned": 2731,
      "japan": 2732,
      "35": 2733,
      "whole": 2734,
      "sar": 2735,
      "ump": 2736,
      "disease": 2737,
      "drugs": 2738,
      "defense": 2739,
      "figh": 2740,
      "forman": 2741,
      "owner": 2742,
      "peace": 2743,
      "surger": 2744,
      "martin": 2745,
      "hall": 2746,
      "pressure": 2747,
      "swe": 2748,
      "clim": 2749,
      "created": 2750,
      "cul": 2751,
      "internet": 2752,
      "consu": 2753,
      "fighting": 2754,
      "shar": 2755,
      "aur": 2756,
      "organiz": 2757,
      "zing": 2758,
      "victory": 2759,
      "english": 2760,
      "winning": 2761,
      "vote": 2762,
      "trip": 2763,
      "longer": 2764,
      "iod": 2765,
      "ake": 2766,
      "conserv": 2767,
      "pping": 2768,
      "letter": 2769,
      "cannot": 2770,
      "opport": 2771,
      "ify": 2772,
      "matter": 2773,
      "cash": 2774,
      "memor": 2775,
      "users": 2776,
      "anal": 2777,
      "opportun": 2778,
      "speed": 2779,
      "quite": 2780,
      "table": 2781,
      "approach": 2782,
      "gard": 2783,
      "scot": 2784,
      "executive": 2785,
      "bud": 2786,
      "queen": 2787,
      "pak": 2788,
      "total": 2789,
      "arsenal": 2790,
      "financial": 2791,
      "takes": 2792,
      "fif": 2793,
      "iss": 2794,
      "period": 2795,
      "charac": 2796,
      "mir": 2797,
      "residents": 2798,
      "minute": 2799,
      "employ": 2800,
      "data": 2801,
      "college": 2802,
      "individ": 2803,
      "built": 2804,
      "ties": 2805,
      "provide": 2806,
      "ond": 2807,
      "counts": 2808,
      "aid": 2809,
      "pret": 2810,
      "direct": 2811,
      "hundreds": 2812,
      "inv": 2813,
      "beha": 2814,
      "sor": 2815,
      "injury": 2816,
      "experts": 2817,
      "appeal": 2818,
      "refer": 2819,
      "apple": 2820,
      "education": 2821,
      "wish": 2822,
      "peter": 2823,
      "cher": 2824,
      "previous": 2825,
      "wear": 2826,
      "contract": 2827,
      "mou": 2828,
      "repe": 2829,
      "rap": 2830,
      "blue": 2831,
      "meet": 2832,
      "ival": 2833,
      "initial": 2834,
      "independ": 2835,
      "source": 2836,
      "committee": 2837,
      "average": 2838,
      "signific": 2839,
      "share": 2840,
      "feet": 2841,
      "80": 2842,
      "emergency": 2843,
      "extreme": 2844,
      "performan": 2845,
      "card": 2846,
      "exam": 2847,
      "ches": 2848,
      "ize": 2849,
      "spect": 2850,
      "technology": 2851,
      "phys": 2852,
      "gal": 2853,
      "scott": 2854,
      "homes": 2855,
      "biggest": 2856,
      "carried": 2857,
      "kids": 2858,
      "ern": 2859,
      "region": 2860,
      "pakistan": 2861,
      "reed": 2862,
      "cop": 2863,
      "reporter": 2864,
      "gs": 2865,
      "included": 2866,
      "kel": 2867,
      "prevent": 2868,
      "nav": 2869,
      "pose": 2870,
      "launched": 2871,
      "ii": 2872,
      "engers": 2873,
      "fan": 2874,
      "crew": 2875,
      "captain": 2876,
      "district": 2877,
      "brain": 2878,
      "mult": 2879,
      "marriage": 2880,
      "previously": 2881,
      "offer": 2882,
      "nes": 2883,
      "review": 2884,
      "surgery": 2885,
      "estim": 2886,
      "wat": 2887,
      "ald": 2888,
      "ises": 2889,
      "continued": 2890,
      "loved": 2891,
      "energy": 2892,
      "camera": 2893,
      "fash": 2894,
      "sir": 2895,
      "warned": 2896,
      "arent": 2897,
      "lect": 2898,
      "bled": 2899,
      "fill": 2900,
      "respect": 2901,
      "sof": 2902,
      "border": 2903,
      "lew": 2904,
      "germany": 2905,
      "rate": 2906,
      "regular": 2907,
      "photos": 2908,
      "assault": 2909,
      "counter": 2910,
      "bes": 2911,
      "enjoy": 2912,
      "bell": 2913,
      "31": 2914,
      "moving": 2915,
      "conference": 2916,
      "pred": 2917,
      "ends": 2918,
      "sentence": 2919,
      "female": 2920,
      "redu": 2921,
      "laugh": 2922,
      "iff": 2923,
      "sat": 2924,
      "struct": 2925,
      "words": 2926,
      "goals": 2927,
      "stern": 2928,
      "ander": 2929,
      "enge": 2930,
      "ali": 2931,
      "ille": 2932,
      "australian": 2933,
      "hs": 2934,
      "behavi": 2935,
      "hous": 2936,
      "fashion": 2937,
      "demon": 2938,
      "chris": 2939,
      "champions": 2940,
      "ona": 2941,
      "finally": 2942,
      "river": 2943,
      "wild": 2944,
      "pregn": 2945,
      "texas": 2946,
      "request": 2947,
      "german": 2948,
      "ti": 2949,
      "muslim": 2950,
      "response": 2951,
      "din": 2952,
      "administration": 2953,
      "chinese": 2954,
      "entire": 2955,
      "details": 2956,
      "grad": 2957,
      "rock": 2958,
      "quickly": 2959,
      "create": 2960,
      "ni": 2961,
      "parts": 2962,
      "sher": 2963,
      "passengers": 2964,
      "clean": 2965,
      "nu": 2966,
      "hero": 2967,
      "90": 2968,
      "gain": 2969,
      "natur": 2970,
      "exc": 2971,
      "questions": 2972,
      "economic": 2973,
      "joined": 2974,
      "fish": 2975,
      "significant": 2976,
      "believes": 2977,
      "bey": 2978,
      "2007": 2979,
      "dream": 2980,
      "convicted": 2981,
      "occur": 2982,
      "ently": 2983,
      "vehicle": 2984,
      "impact": 2985,
      "immediately": 2986,
      "lived": 2987,
      "richard": 2988,
      "span": 2989,
      "amed": 2990,
      "identified": 2991,
      "changed": 2992,
      "rang": 2993,
      "window": 2994,
      "probab": 2995,
      "gri": 2996,
      "recogn": 2997,
      "engine": 2998,
      "skin": 2999,
      "standing": 3000,
      "sibility": 3001,
      "cars": 3002,
      "companies": 3003,
      "penal": 3004,
      "sleep": 3005,
      "armed": 3006,
      "growing": 3007,
      "fear": 3008,
      "employe": 3009,
      "spee": 3010,
      "fected": 3011,
      "restaur": 3012,
      "ption": 3013,
      "oring": 3014,
      "damage": 3015,
      "appearance": 3016,
      "refused": 3017,
      "williams": 3018,
      "isn": 3019,
      "push": 3020,
      "ada": 3021,
      "ado": 3022,
      "icide": 3023,
      "size": 3024,
      "poor": 3025,
      "insist": 3026,
      "boys": 3027,
      "attention": 3028,
      "opened": 3029,
      "ible": 3030,
      "cially": 3031,
      "lling": 3032,
      "advis": 3033,
      "global": 3034,
      "plant": 3035,
      "remember": 3036,
      "passed": 3037,
      "afghanistan": 3038,
      "candid": 3039,
      "compu": 3040,
      "contributed": 3041,
      "oil": 3042,
      "denied": 3043,
      "mary": 3044,
      "suppor": 3045,
      "tempt": 3046,
      "customers": 3047,
      "cook": 3048,
      "conditions": 3049,
      "rare": 3050,
      "title": 3051,
      "actions": 3052,
      "goog": 3053,
      "onto": 3054,
      "opening": 3055,
      "industry": 3056,
      "ample": 3057,
      "apparent": 3058,
      "drive": 3059,
      "dar": 3060,
      "mel": 3061,
      "probably": 3062,
      "inary": 3063,
      "either": 3064,
      "loy": 3065,
      "scotland": 3066,
      "spoke": 3067,
      "guard": 3068,
      "vert": 3069,
      "republican": 3070,
      "rick": 3071,
      "partner": 3072,
      "victor": 3073,
      "events": 3074,
      "consider": 3075,
      "fal": 3076,
      "scored": 3077,
      "turning": 3078,
      "wait": 3079,
      "award": 3080,
      "avoid": 3081,
      "faces": 3082,
      "northern": 3083,
      "floor": 3084,
      "missed": 3085,
      "doctor": 3086,
      "envir": 3087,
      "google": 3088,
      "african": 3089,
      "warning": 3090,
      "demonstr": 3091,
      "goes": 3092,
      "moder": 3093,
      "enger": 3094,
      "perfect": 3095,
      "followed": 3096,
      "accept": 3097,
      "environ": 3098,
      "western": 3099,
      "hen": 3100,
      "zer": 3101,
      "nick": 3102,
      "troops": 3103,
      "newsp": 3104,
      "bla": 3105,
      "shown": 3106,
      "strugg": 3107,
      "gay": 3108,
      "lack": 3109,
      "tot": 3110,
      "kim": 3111,
      "challenge": 3112,
      "load": 3113,
      "noon": 3114,
      "allegations": 3115,
      "flow": 3116,
      "teenag": 3117,
      "dangerous": 3118,
      "results": 3119,
      "animal": 3120,
      "changes": 3121,
      "figures": 3122,
      "herself": 3123,
      "jackson": 3124,
      "waiting": 3125,
      "towards": 3126,
      "served": 3127,
      "clinton": 3128,
      "prin": 3129,
      "espe": 3130,
      "ably": 3131,
      "agreed": 3132,
      "especially": 3133,
      "spending": 3134,
      "twee": 3135,
      "32": 3136,
      "ively": 3137,
      "impress": 3138,
      "stood": 3139,
      "alone": 3140,
      "offered": 3141,
      "emot": 3142,
      "cred": 3143,
      "johnson": 3144,
      "deliver": 3145,
      "calling": 3146,
      "storm": 3147,
      "jen": 3148,
      "citiz": 3149,
      "trou": 3150,
      "eventually": 3151,
      "phy": 3152,
      "raise": 3153,
      "closed": 3154,
      "mobile": 3155,
      "israel": 3156,
      "simply": 3157,
      "hest": 3158,
      "adding": 3159,
      "ya": 3160,
      "leve": 3161,
      "signed": 3162,
      "rupt": 3163,
      "wedding": 3164,
      "cab": 3165,
      "date": 3166,
      "jobs": 3167,
      "diag": 3168,
      "korea": 3169,
      "fine": 3170,
      "crown": 3171,
      "soldiers": 3172,
      "acce": 3173,
      "schools": 3174,
      "jones": 3175,
      "happen": 3176,
      "instit": 3177,
      "radio": 3178,
      "seems": 3179,
      "ox": 3180,
      "speech": 3181,
      "appears": 3182,
      "pointed": 3183,
      "document": 3184,
      "treated": 3185,
      "television": 3186,
      "increase": 3187,
      "mater": 3188,
      "iled": 3189,
      "investigators": 3190,
      "hum": 3191,
      "ka": 3192,
      "weapons": 3193,
      "fellow": 3194,
      "network": 3195,
      "ert": 3196,
      "psy": 3197,
      "lawyer": 3198,
      "luck": 3199,
      "ension": 3200,
      "check": 3201,
      "opin": 3202,
      "detect": 3203,
      "zz": 3204,
      "madrid": 3205,
      "true": 3206,
      "jury": 3207,
      "session": 3208,
      "stopped": 3209,
      "intell": 3210,
      "histor": 3211,
      "intellig": 3212,
      "lay": 3213,
      "cult": 3214,
      "yst": 3215,
      "aim": 3216,
      "broke": 3217,
      "encoura": 3218,
      "bush": 3219,
      "amount": 3220,
      "squad": 3221,
      "sense": 3222,
      "ini": 3223,
      "anth": 3224,
      "bass": 3225,
      "tained": 3226,
      "india": 3227,
      "indic": 3228,
      "33": 3229,
      "cro": 3230,
      "bomb": 3231,
      "shir": 3232,
      "freed": 3233,
      "stad": 3234,
      "professor": 3235,
      "surround": 3236,
      "save": 3237,
      "ples": 3238,
      "cum": 3239,
      "performance": 3240,
      "scientists": 3241,
      "striker": 3242,
      "evening": 3243,
      "glass": 3244,
      "affair": 3245,
      "motor": 3246,
      "gor": 3247,
      "rise": 3248,
      "ceed": 3249,
      "eyes": 3250,
      "acts": 3251,
      "insur": 3252,
      "iger": 3253,
      "pi": 3254,
      "197": 3255,
      "erson": 3256,
      "temper": 3257,
      "god": 3258,
      "pun": 3259,
      "word": 3260,
      "forts": 3261,
      "costs": 3262,
      "angeles": 3263,
      "castle": 3264,
      "defin": 3265,
      "cis": 3266,
      "dad": 3267,
      "mexico": 3268,
      "designed": 3269,
      "louis": 3270,
      "inated": 3271,
      "intro": 3272,
      "seeing": 3273,
      "diagno": 3274,
      "anger": 3275,
      "showing": 3276,
      "nations": 3277,
      "quality": 3278,
      "charity": 3279,
      "cue": 3280,
      "ordered": 3281,
      "considered": 3282,
      "broken": 3283,
      "largest": 3284,
      "reportedly": 3285,
      "economy": 3286,
      "written": 3287,
      "sequ": 3288,
      "midfield": 3289,
      "sale": 3290,
      "kno": 3291,
      "animals": 3292,
      "related": 3293,
      "concerns": 3294,
      "bought": 3295,
      "crisis": 3296,
      "carol": 3297,
      "normal": 3298,
      "boo": 3299,
      "kar": 3300,
      "society": 3301,
      "nearby": 3302,
      "doz": 3303,
      "arms": 3304,
      "cere": 3305,
      "prim": 3306,
      "dem": 3307,
      "afternoon": 3308,
      "promot": 3309,
      "olf": 3310,
      "gang": 3311,
      "transport": 3312,
      "introdu": 3313,
      "medic": 3314,
      "pted": 3315,
      "prosecutors": 3316,
      "ib": 3317,
      "alco": 3318,
      "ender": 3319,
      "wing": 3320,
      "discuss": 3321,
      "spread": 3322,
      "researchers": 3323,
      "gic": 3324,
      "magaz": 3325,
      "wales": 3326,
      "owners": 3327,
      "egy": 3328,
      "efforts": 3329,
      "mac": 3330,
      "spain": 3331,
      "heavy": 3332,
      "antic": 3333,
      "rates": 3334,
      "mayor": 3335,
      "stars": 3336,
      "flood": 3337,
      "slow": 3338,
      "alcohol": 3339,
      "zo": 3340,
      "girlfriend": 3341,
      "jailed": 3342,
      "gather": 3343,
      "mouth": 3344,
      "achie": 3345,
      "burn": 3346,
      "sec": 3347,
      "rules": 3348,
      "focus": 3349,
      "attempt": 3350,
      "effort": 3351,
      "egypt": 3352,
      "unable": 3353,
      "movie": 3354,
      "wonder": 3355,
      "veter": 3356,
      "issued": 3357,
      "burg": 3358,
      "jose": 3359,
      "feed": 3360,
      "character": 3361,
      "arab": 3362,
      "sometimes": 3363,
      "communic": 3364,
      "footage": 3365,
      "mun": 3366,
      "emerged": 3367,
      "responsible": 3368,
      "relig": 3369,
      "fly": 3370,
      "anda": 3371,
      "dig": 3372,
      "aked": 3373,
      "fest": 3374,
      "twice": 3375,
      "natural": 3376,
      "chairman": 3377,
      "opportunity": 3378,
      "favour": 3379,
      "ell": 3380,
      "lap": 3381,
      "lif": 3382,
      "join": 3383,
      "aware": 3384,
      "wouldn": 3385,
      "robert": 3386,
      "ody": 3387,
      "talking": 3388,
      "higher": 3389,
      "song": 3390,
      "rey": 3391,
      "supporters": 3392,
      "figure": 3393,
      "century": 3394,
      "comfort": 3395,
      "ax": 3396,
      "atl": 3397,
      "eat": 3398,
      "sad": 3399,
      "kee": 3400,
      "audi": 3401,
      "ull": 3402,
      "meanwhile": 3403,
      "cou": 3404,
      "300": 3405,
      "experi": 3406,
      "marks": 3407,
      "manage": 3408,
      "throughout": 3409,
      "stadium": 3410,
      "36": 3411,
      "sens": 3412,
      "suffering": 3413,
      "spend": 3414,
      "terms": 3415,
      "andrew": 3416,
      "adam": 3417,
      "pes": 3418,
      "holding": 3419,
      "neighbor": 3420,
      "screen": 3421,
      "prior": 3422,
      "square": 3423,
      "scar": 3424,
      "fourth": 3425,
      "incredi": 3426,
      "determin": 3427,
      "development": 3428,
      "ville": 3429,
      "parliam": 3430,
      "oh": 3431,
      "telling": 3432,
      "zy": 3433,
      "lord": 3434,
      "explos": 3435,
      "necess": 3436,
      "aircraft": 3437,
      "send": 3438,
      "deput": 3439,
      "imag": 3440,
      "2006": 3441,
      "completely": 3442,
      "successful": 3443,
      "millions": 3444,
      "dogs": 3445,
      "thomas": 3446,
      "estab": 3447,
      "hed": 3448,
      "particularly": 3449,
      "parliament": 3450,
      "increasing": 3451,
      "reli": 3452,
      "association": 3453,
      "pup": 3454,
      "guest": 3455,
      "walking": 3456,
      "regard": 3457,
      "paris": 3458,
      "italy": 3459,
      "levels": 3460,
      "boat": 3461,
      "flict": 3462,
      "ez": 3463,
      "mour": 3464,
      "example": 3465,
      "iful": 3466,
      "improve": 3467,
      "anta": 3468,
      "influ": 3469,
      "34": 3470,
      "ature": 3471,
      "mates": 3472,
      "lled": 3473,
      "severe": 3474,
      "nur": 3475,
      "target": 3476,
      "jam": 3477,
      "nuclear": 3478,
      "jected": 3479,
      "cold": 3480,
      "via": 3481,
      "explo": 3482,
      "managed": 3483,
      "lose": 3484,
      "conduct": 3485,
      "raid": 3486,
      "ski": 3487,
      "coll": 3488,
      "som": 3489,
      "teacher": 3490,
      "sentenced": 3491,
      "subst": 3492,
      "mate": 3493,
      "inno": 3494,
      "streets": 3495,
      "atory": 3496,
      "exact": 3497,
      "meant": 3498,
      "spl": 3499,
      "piece": 3500,
      "neighbour": 3501,
      "mode": 3502,
      "ils": 3503,
      "southern": 3504,
      "bodies": 3505,
      "islamic": 3506,
      "newspaper": 3507,
      "item": 3508,
      "winner": 3509,
      "rescue": 3510,
      "rub": 3511,
      "nhs": 3512,
      "asking": 3513,
      "attacked": 3514,
      "fired": 3515,
      "clus": 3516,
      "wound": 3517,
      "quarter": 3518,
      "senate": 3519,
      "quir": 3520,
      "penalty": 3521,
      "sched": 3522,
      "straight": 3523,
      "reform": 3524,
      "removed": 3525,
      "sales": 3526,
      "paper": 3527,
      "ilities": 3528,
      "suicide": 3529,
      "double": 3530,
      "pretty": 3531,
      "fighters": 3532,
      "smart": 3533,
      "hid": 3534,
      "iny": 3535,
      "196": 3536,
      "nis": 3537,
      "easy": 3538,
      "steph": 3539,
      "competition": 3540,
      "majority": 3541,
      "records": 3542,
      "brad": 3543,
      "defence": 3544,
      "nic": 3545,
      "carrying": 3546,
      "cape": 3547,
      "harry": 3548,
      "daniel": 3549,
      "hopes": 3550,
      "vor": 3551,
      "prov": 3552,
      "reporters": 3553,
      "deaths": 3554,
      "thanks": 3555,
      "attend": 3556,
      "bt": 3557,
      "actor": 3558,
      "37": 3559,
      "pulled": 3560,
      "respond": 3561,
      "stic": 3562,
      "ensure": 3563,
      "swim": 3564,
      "absol": 3565,
      "lands": 3566,
      "opposition": 3567,
      "mountain": 3568,
      "web": 3569,
      "planned": 3570,
      "intelligence": 3571,
      "wealth": 3572,
      "struck": 3573,
      "qa": 3574,
      "tt": 3575,
      "original": 3576,
      "crowd": 3577,
      "shut": 3578,
      "lic": 3579,
      "type": 3580,
      "comb": 3581,
      "winter": 3582,
      "ancy": 3583,
      "finish": 3584,
      "material": 3585,
      "py": 3586,
      "includes": 3587,
      "collection": 3588,
      "rou": 3589,
      "documents": 3590,
      "ampton": 3591,
      "ador": 3592,
      "dney": 3593,
      "comed": 3594,
      "rit": 3595,
      "dun": 3596,
      "text": 3597,
      "devast": 3598,
      "magazine": 3599,
      "laws": 3600,
      "feeling": 3601,
      "numbers": 3602,
      "clash": 3603,
      "presidential": 3604,
      "iced": 3605,
      "concerned": 3606,
      "ros": 3607,
      "struction": 3608,
      "village": 3609,
      "thank": 3610,
      "challeng": 3611,
      "lux": 3612,
      "bath": 3613,
      "stab": 3614,
      "ries": 3615,
      "syrian": 3616,
      "auto": 3617,
      "absolute": 3618,
      "transfer": 3619,
      "dict": 3620,
      "attract": 3621,
      "places": 3622,
      "ceremon": 3623,
      "older": 3624,
      "flat": 3625,
      "grant": 3626,
      "repeated": 3627,
      "inde": 3628,
      "exist": 3629,
      "alter": 3630,
      "computer": 3631,
      "virgin": 3632,
      "planning": 3633,
      "rose": 3634,
      "dropped": 3635,
      "reached": 3636,
      "palace": 3637,
      "symp": 3638,
      "worst": 3639,
      "jim": 3640,
      "beautiful": 3641,
      "fee": 3642,
      "benefits": 3643,
      "muse": 3644,
      "messages": 3645,
      "anna": 3646,
      "iation": 3647,
      "championship": 3648,
      "atures": 3649,
      "version": 3650,
      "population": 3651,
      "bedroom": 3652,
      "products": 3653,
      "sound": 3654,
      "tery": 3655,
      "afford": 3656,
      "ched": 3657,
      "progress": 3658,
      "wheel": 3659,
      "positive": 3660,
      "itself": 3661,
      "selling": 3662,
      "ift": 3663,
      "insp": 3664,
      "gers": 3665,
      "destroy": 3666,
      "constit": 3667,
      "shel": 3668,
      "display": 3669,
      "strike": 3670,
      "faced": 3671,
      "helping": 3672,
      "stun": 3673,
      "healthy": 3674,
      "poll": 3675,
      "patient": 3676,
      "frank": 3677,
      "highest": 3678,
      "lady": 3679,
      "decades": 3680,
      "modern": 3681,
      "nas": 3682,
      "38": 3683,
      "jac": 3684,
      "max": 3685,
      "jum": 3686,
      "apolog": 3687,
      "watching": 3688,
      "professional": 3689,
      "dark": 3690,
      "names": 3691,
      "ov": 3692,
      "raine": 3693,
      "usually": 3694,
      "email": 3695,
      "illegal": 3696,
      "occas": 3697,
      "bun": 3698,
      "democratic": 3699,
      "clearly": 3700,
      "44": 3701,
      "talks": 3702,
      "mess": 3703,
      "mailonline": 3704,
      "barce": 3705,
      "breaking": 3706,
      "sche": 3707,
      "captured": 3708,
      "suggested": 3709,
      "francis": 3710,
      "native": 3711,
      "rape": 3712,
      "lona": 3713,
      "ai": 3714,
      "obv": 3715,
      "appropri": 3716,
      "sydney": 3717,
      "barcelona": 3718,
      "zed": 3719,
      "gry": 3720,
      "immigration": 3721,
      "owned": 3722,
      "plead": 3723,
      "restaurant": 3724,
      "targe": 3725,
      "lat": 3726,
      "gling": 3727,
      "psych": 3728,
      "starting": 3729,
      "teams": 3730,
      "apartment": 3731,
      "mum": 3732,
      "certainly": 3733,
      "usual": 3734,
      "alongside": 3735,
      "lower": 3736,
      "delay": 3737,
      "haps": 3738,
      "iple": 3739,
      "seat": 3740,
      "bly": 3741,
      "proud": 3742,
      "minor": 3743,
      "hang": 3744,
      "stress": 3745,
      "swit": 3746,
      "farm": 3747,
      "compared": 3748,
      "phones": 3749,
      "rod": 3750,
      "facing": 3751,
      "massive": 3752,
      "bac": 3753,
      "55": 3754,
      "?'": 3755,
      "linked": 3756,
      "fare": 3757,
      "protesters": 3758,
      "claiming": 3759,
      "pac": 3760,
      "stick": 3761,
      "ites": 3762,
      "ider": 3763,
      "ints": 3764,
      "inson": 3765,
      "becoming": 3766,
      "47": 3767,
      "aste": 3768,
      "tough": 3769,
      "fortun": 3770,
      "48": 3771,
      "perhaps": 3772,
      "xed": 3773,
      "myself": 3774,
      "handed": 3775,
      "survey": 3776,
      "barack": 3777,
      "learn": 3778,
      "pla": 3779,
      "zi": 3780,
      "catch": 3781,
      "affected": 3782,
      "mu": 3783,
      "bury": 3784,
      "bail": 3785,
      "scand": 3786,
      "museum": 3787,
      "steve": 3788,
      "advert": 3789,
      "joe": 3790,
      "shared": 3791,
      "dome": 3792,
      "ami": 3793,
      "bola": 3794,
      "choice": 3795,
      "2005": 3796,
      "color": 3797,
      "bc": 3798,
      "gus": 3799,
      "enforce": 3800,
      "tests": 3801,
      "lake": 3802,
      "guy": 3803,
      "block": 3804,
      "fant": 3805,
      "flying": 3806,
      "whom": 3807,
      "bright": 3808,
      "debate": 3809,
      "republicans": 3810,
      "thes": 3811,
      "mous": 3812,
      "sorry": 3813,
      "uled": 3814,
      "erc": 3815,
      "eda": 3816,
      "39": 3817,
      "active": 3818,
      "italian": 3819,
      "cia": 3820,
      "putting": 3821,
      "particip": 3822,
      "stock": 3823,
      "features": 3824,
      "degree": 3825,
      "sem": 3826,
      "strate": 3827,
      "mile": 3828,
      "subject": 3829,
      "fbi": 3830,
      "violent": 3831,
      "lyn": 3832,
      "controvers": 3833,
      "tournam": 3834,
      "rant": 3835,
      "adem": 3836,
      "lip": 3837,
      "istic": 3838,
      "defeat": 3839,
      "isl": 3840,
      "traffic": 3841,
      "ki": 3842,
      "singer": 3843,
      "eating": 3844,
      "losing": 3845,
      "fox": 3846,
      "ashed": 3847,
      "beck": 3848,
      "compe": 3849,
      "filed": 3850,
      "ung": 3851,
      "thinking": 3852,
      "argent": 3853,
      "iment": 3854,
      "apparently": 3855,
      "isa": 3856,
      "specific": 3857,
      "culture": 3858,
      "nom": 3859,
      "custody": 3860,
      "icles": 3861,
      "fresh": 3862,
      "ruled": 3863,
      "era": 3864,
      "brook": 3865,
      "stren": 3866,
      "continues": 3867,
      "voice": 3868,
      "freedom": 3869,
      "below": 3870,
      "teenager": 3871,
      "explained": 3872,
      "99": 3873,
      "organization": 3874,
      "42": 3875,
      "labor": 3876,
      "ryan": 3877,
      "nand": 3878,
      "extremely": 3879,
      "academ": 3880,
      "hack": 3881,
      "rants": 3882,
      "langu": 3883,
      "cket": 3884,
      "giant": 3885,
      "holly": 3886,
      "corpor": 3887,
      "jok": 3888,
      "throw": 3889,
      "guar": 3890,
      "cub": 3891,
      "shortly": 3892,
      "drop": 3893,
      "conservative": 3894,
      "device": 3895,
      "gro": 3896,
      "eth": 3897,
      "tay": 3898,
      "reasons": 3899,
      "sick": 3900,
      "pitch": 3901,
      "signs": 3902,
      "predict": 3903,
      "insisted": 3904,
      "committed": 3905,
      "deputy": 3906,
      "breast": 3907,
      "iving": 3908,
      "pher": 3909,
      "blow": 3910,
      "rum": 3911,
      "murray": 3912,
      "charles": 3913,
      "independent": 3914,
      "beyond": 3915,
      "seemed": 3916,
      "ji": 3917,
      "rebe": 3918,
      "jersey": 3919,
      "path": 3920,
      "budget": 3921,
      "spanish": 3922,
      "akes": 3923,
      "cain": 3924,
      "bin": 3925,
      "legisl": 3926,
      "greg": 3927,
      "georg": 3928,
      "controversial": 3929,
      "prices": 3930,
      "midfielder": 3931,
      "sau": 3932,
      "olympic": 3933,
      "crack": 3934,
      "chu": 3935,
      "suspic": 3936,
      "lock": 3937,
      "keeping": 3938,
      "fing": 3939,
      "ultim": 3940,
      "cities": 3941,
      "announce": 3942,
      "operations": 3943,
      "associated": 3944,
      "nar": 3945,
      "pregnant": 3946,
      "tel": 3947,
      "receive": 3948,
      "ukraine": 3949,
      "amazing": 3950,
      "causing": 3951,
      "provided": 3952,
      "rolled": 3953,
      "annual": 3954,
      "attended": 3955,
      "pled": 3956,
      "’,": 3957,
      "brief": 3958,
      "spotted": 3959,
      "affect": 3960,
      "romney": 3961,
      "initially": 3962,
      "400": 3963,
      "science": 3964,
      "trade": 3965,
      "streng": 3966,
      "oce": 3967,
      "serving": 3968,
      "runs": 3969,
      "estimated": 3970,
      "movement": 3971,
      "fro": 3972,
      "walked": 3973,
      "resol": 3974,
      "chic": 3975,
      "christian": 3976,
      "reality": 3977,
      "tered": 3978,
      "stain": 3979,
      "ministry": 3980,
      "tribut": 3981,
      "boyfriend": 3982,
      "suspended": 3983,
      "tree": 3984,
      "maybe": 3985,
      "rober": 3986,
      "reser": 3987,
      "expressed": 3988,
      "qaeda": 3989,
      "garden": 3990,
      "spring": 3991,
      "exerc": 3992,
      "corre": 3993,
      "fuel": 3994,
      "ebola": 3995,
      "pilot": 3996,
      "hurt": 3997,
      "greater": 3998,
      "fab": 3999,
      "andy": 4000,
      "sets": 4001,
      "ceremony": 4002,
      "actress": 4003,
      "oned": 4004,
      "inspe": 4005,
      "keeper": 4006,
      "lets": 4007,
      "sitting": 4008,
      "views": 4009,
      "sight": 4010,
      "ults": 4011,
      "estate": 4012,
      "serve": 4013,
      "cow": 4014,
      "pel": 4015,
      "anne": 4016,
      "traditional": 4017,
      "expert": 4018,
      "ours": 4019,
      ".,": 4020,
      "visited": 4021,
      "eastern": 4022,
      "banned": 4023,
      "practice": 4024,
      "individual": 4025,
      "shock": 4026,
      "origin": 4027,
      "items": 4028,
      "cha": 4029,
      "politic": 4030,
      "46": 4031,
      "growth": 4032,
      "negot": 4033,
      "coal": 4034,
      "igan": 4035,
      "finding": 4036,
      "lights": 4037,
      "bottom": 4038,
      "neg": 4039,
      "object": 4040,
      "voters": 4041,
      "pray": 4042,
      "employees": 4043,
      "younger": 4044,
      "dor": 4045,
      "rout": 4046,
      "commer": 4047,
      "agreement": 4048,
      "bil": 4049,
      "dram": 4050,
      "broadcast": 4051,
      "upon": 4052,
      "concern": 4053,
      "2004": 4054,
      "mans": 4055,
      "makers": 4056,
      "nice": 4057,
      "bob": 4058,
      "antly": 4059,
      "youth": 4060,
      "conflict": 4061,
      "knows": 4062,
      "developed": 4063,
      "49": 4064,
      "increased": 4065,
      "unit": 4066,
      "kat": 4067,
      "fraud": 4068,
      "boston": 4069,
      "neck": 4070,
      "weigh": 4071,
      "visitors": 4072,
      "gue": 4073,
      "pleaded": 4074,
      "terrorist": 4075,
      "decade": 4076,
      "ological": 4077,
      "wake": 4078,
      "loan": 4079,
      "protection": 4080,
      "enforcement": 4081,
      "?\"": 4082,
      "birthday": 4083,
      "sources": 4084,
      "ano": 4085,
      "spark": 4086,
      "bling": 4087,
      "crimes": 4088,
      "alive": 4089,
      "note": 4090,
      "occurred": 4091,
      "sort": 4092,
      "kate": 4093,
      "thy": 4094,
      "worker": 4095,
      "journey": 4096,
      "ked": 4097,
      "foc": 4098,
      "embar": 4099,
      "books": 4100,
      "sters": 4101,
      "horse": 4102,
      "imum": 4103,
      "responsibility": 4104,
      "connect": 4105,
      "43": 4106,
      "suspected": 4107,
      "sheriff": 4108,
      "bear": 4109,
      "value": 4110,
      "bia": 4111,
      "eld": 4112,
      "sud": 4113,
      "confident": 4114,
      "recomm": 4115,
      "hunt": 4116,
      "ledge": 4117,
      "governor": 4118,
      "absolutely": 4119,
      "map": 4120,
      "parties": 4121,
      "nature": 4122,
      "tournament": 4123,
      "newcastle": 4124,
      "powerful": 4125,
      "watched": 4126,
      "disap": 4127,
      "haven": 4128,
      "user": 4129,
      "answer": 4130,
      "ari": 4131,
      "dollar": 4132,
      "setting": 4133,
      "mont": 4134,
      "drinking": 4135,
      "mach": 4136,
      "resign": 4137,
      "insu": 4138,
      "domestic": 4139,
      "rome": 4140,
      "favor": 4141,
      "attempted": 4142,
      "beginning": 4143,
      "ani": 4144,
      "75": 4145,
      "pounds": 4146,
      "behaviour": 4147,
      "scen": 4148,
      "investigating": 4149,
      "unk": 4150,
      "protests": 4151,
      "diagnosed": 4152,
      "blog": 4153,
      "ses": 4154,
      "seeking": 4155,
      "grab": 4156,
      "liby": 4157,
      "profile": 4158,
      "determined": 4159,
      "kent": 4160,
      "organis": 4161,
      "spokeswoman": 4162,
      "aging": 4163,
      "arily": 4164,
      "icop": 4165,
      "sup": 4166,
      "consum": 4167,
      "democrats": 4168,
      "artist": 4169,
      "physical": 4170,
      "rol": 4171,
      "ruling": 4172,
      "regime": 4173,
      "steps": 4174,
      "bott": 4175,
      "shirt": 4176,
      "multiple": 4177,
      "convers": 4178,
      "taylor": 4179,
      "desper": 4180,
      "hoping": 4181,
      "credit": 4182,
      "mond": 4183,
      "regul": 4184,
      "supre": 4185,
      "picked": 4186,
      "yard": 4187,
      "jet": 4188,
      "addition": 4189,
      "41": 4190,
      "rail": 4191,
      "appropriate": 4192,
      "rooms": 4193,
      "divor": 4194,
      "chem": 4195,
      "ara": 4196,
      "purch": 4197,
      "learned": 4198,
      "revol": 4199,
      "beth": 4200,
      "indian": 4201,
      "alan": 4202,
      "pit": 4203,
      "complex": 4204,
      "assistant": 4205,
      "location": 4206,
      "mph": 4207,
      "tali": 4208,
      "las": 4209,
      "channel": 4210,
      "len": 4211,
      "highly": 4212,
      "scandal": 4213,
      "traged": 4214,
      "shots": 4215,
      "opinion": 4216,
      "mike": 4217,
      "partners": 4218,
      "ders": 4219,
      "prepared": 4220,
      "kins": 4221,
      "writing": 4222,
      "propos": 4223,
      "collect": 4224,
      "witnesses": 4225,
      "bum": 4226,
      "foundation": 4227,
      "tun": 4228,
      "inho": 4229,
      "pir": 4230,
      "exactly": 4231,
      "finished": 4232,
      "meaning": 4233,
      "proced": 4234,
      "hat": 4235,
      "harm": 4236,
      "worse": 4237,
      "bru": 4238,
      "programme": 4239,
      "doubt": 4240,
      "amid": 4241,
      "negoti": 4242,
      "deser": 4243,
      "moon": 4244,
      "tweeted": 4245,
      "covering": 4246,
      "holds": 4247,
      "defender": 4248,
      "remained": 4249,
      "activity": 4250,
      "authority": 4251,
      "management": 4252,
      "necessary": 4253,
      "sons": 4254,
      "shocked": 4255,
      "seconds": 4256,
      "separate": 4257,
      "matt": 4258,
      "ireland": 4259,
      "threatened": 4260,
      "moham": 4261,
      "flag": 4262,
      "instru": 4263,
      "simple": 4264,
      "tenham": 4265,
      "gives": 4266,
      "inquir": 4267,
      "helicop": 4268,
      "ife": 4269,
      "wilson": 4270,
      "raising": 4271,
      "oph": 4272,
      "meth": 4273,
      "measures": 4274,
      "iles": 4275,
      "ocean": 4276,
      "insurance": 4277,
      "duty": 4278,
      "chemical": 4279,
      "nut": 4280,
      "gate": 4281,
      "reading": 4282,
      "bish": 4283,
      "eg": 4284,
      "environment": 4285,
      "nd": 4286,
      "mort": 4287,
      "cool": 4288,
      "':": 4289,
      "paying": 4290,
      "tack": 4291,
      "prosecutor": 4292,
      "entertain": 4293,
      "uded": 4294,
      "korean": 4295,
      "israeli": 4296,
      "tens": 4297,
      "expensive": 4298,
      "acting": 4299,
      "inspired": 4300,
      "recovery": 4301,
      "scri": 4302,
      "critical": 4303,
      "slo": 4304,
      "cuts": 4305,
      "lah": 4306,
      "rising": 4307,
      "shi": 4308,
      "circum": 4309,
      "sole": 4310,
      "fifth": 4311,
      "icated": 4312,
      "harris": 4313,
      "editor": 4314,
      "navy": 4315,
      "sudden": 4316,
      "micro": 4317,
      "clothes": 4318,
      "kidn": 4319,
      "required": 4320,
      "horrif": 4321,
      "uals": 4322,
      "icon": 4323,
      "kil": 4324,
      "scoring": 4325,
      "rule": 4326,
      "gam": 4327,
      "sarah": 4328,
      "none": 4329,
      "beg": 4330,
      "victoria": 4331,
      "tan": 4332,
      "sites": 4333,
      "tony": 4334,
      "faith": 4335,
      "dia": 4336,
      "file": 4337,
      "replace": 4338,
      "leagues": 4339,
      "stories": 4340,
      "warm": 4341,
      "leng": 4342,
      "tragic": 4343,
      "angry": 4344,
      "citizens": 4345,
      "willing": 4346,
      "heat": 4347,
      "verse": 4348,
      "turkey": 4349,
      "150": 4350,
      "sav": 4351,
      "rage": 4352,
      "lawyers": 4353,
      "ito": 4354,
      "zone": 4355,
      "stret": 4356,
      "eric": 4357,
      "nie": 4358,
      "fled": 4359,
      "unte": 4360,
      "hay": 4361,
      "belong": 4362,
      "carri": 4363,
      "score": 4364,
      "fears": 4365,
      "language": 4366,
      "legs": 4367,
      "memorial": 4368,
      "rated": 4369,
      "tragedy": 4370,
      "anni": 4371,
      "iling": 4372,
      "agent": 4373,
      "various": 4374,
      "tren": 4375,
      "offers": 4376,
      "volunte": 4377,
      "eds": 4378,
      "ural": 4379,
      "silver": 4380,
      "anthony": 4381,
      "fection": 4382,
      "georgia": 4383,
      "vehicles": 4384,
      "guide": 4385,
      "videos": 4386,
      "grapher": 4387,
      "standards": 4388,
      "escape": 4389,
      "chicago": 4390,
      "wise": 4391,
      "cooper": 4392,
      "seriously": 4393,
      "drivers": 4394,
      "massa": 4395,
      "tum": 4396,
      "command": 4397,
      "aband": 4398,
      "jordan": 4399,
      "arian": 4400,
      "stands": 4401,
      "electric": 4402,
      "disput": 4403,
      "ambul": 4404,
      "religious": 4405,
      "ota": 4406,
      "option": 4407,
      "emotional": 4408,
      "oured": 4409,
      "sides": 4410,
      "talent": 4411,
      "plus": 4412,
      "false": 4413,
      "bourne": 4414,
      "scheduled": 4415,
      "gian": 4416,
      "65": 4417,
      "content": 4418,
      "beaten": 4419,
      "spoken": 4420,
      "ases": 4421,
      "bound": 4422,
      "recorded": 4423,
      "illness": 4424,
      "guests": 4425,
      "photographer": 4426,
      "michel": 4427,
      "hollywood": 4428,
      "accom": 4429,
      "shopping": 4430,
      "tip": 4431,
      "panel": 4432,
      "athlet": 4433,
      "confidence": 4434,
      "lucky": 4435,
      "diet": 4436,
      "toward": 4437,
      "limited": 4438,
      "fle": 4439,
      "tory": 4440,
      "ilton": 4441,
      "!'": 4442,
      "require": 4443,
      "taliban": 4444,
      "itation": 4445,
      "article": 4446,
      "advice": 4447,
      "chain": 4448,
      "kne": 4449,
      "dinner": 4450,
      "08": 4451,
      "....": 4452,
      "sla": 4453,
      "illi": 4454,
      "plom": 4455,
      "skill": 4456,
      "funeral": 4457,
      "trouble": 4458,
      "surface": 4459,
      "arez": 4460,
      "gary": 4461,
      "carolina": 4462,
      "vul": 4463,
      "beauty": 4464,
      "pas": 4465,
      "diplom": 4466,
      "tempor": 4467,
      "difference": 4468,
      "simon": 4469,
      "2003": 4470,
      "surge": 4471,
      "cos": 4472,
      "gul": 4473,
      "benefit": 4474,
      "rible": 4475,
      "drag": 4476,
      "equip": 4477,
      "politics": 4478,
      "supreme": 4479,
      "aries": 4480,
      "virus": 4481,
      "leadership": 4482,
      "reck": 4483,
      "feder": 4484,
      "trig": 4485,
      "changing": 4486,
      "stuff": 4487,
      "ube": 4488,
      "clubs": 4489,
      "gaal": 4490,
      "production": 4491,
      "master": 4492,
      "52": 4493,
      "ole": 4494,
      "matches": 4495,
      "golf": 4496,
      "bond": 4497,
      "palest": 4498,
      "soft": 4499,
      "penn": 4500,
      "produced": 4501,
      "acted": 4502,
      "pap": 4503,
      "blast": 4504,
      "airlines": 4505,
      "villa": 4506,
      "steven": 4507,
      "located": 4508,
      "relative": 4509,
      "canada": 4510,
      "ja": 4511,
      "luxury": 4512,
      "lewis": 4513,
      "ordinary": 4514,
      "toms": 4515,
      "iphone": 4516,
      "stream": 4517,
      "truck": 4518,
      "encing": 4519,
      "anch": 4520,
      "hole": 4521,
      "remove": 4522,
      "virginia": 4523,
      "achieve": 4524,
      "stephen": 4525,
      "yan": 4526,
      "donald": 4527,
      "manu": 4528,
      "hart": 4529,
      "wav": 4530,
      "except": 4531,
      "terrorism": 4532,
      "bang": 4533,
      "gall": 4534,
      "brothers": 4535,
      "dozens": 4536,
      "colum": 4537,
      "rug": 4538,
      "houses": 4539,
      "filled": 4540,
      "typ": 4541,
      "plast": 4542,
      "unique": 4543,
      "candidate": 4544,
      "moments": 4545,
      "failure": 4546,
      "definite": 4547,
      "equipment": 4548,
      "answ": 4549,
      "photographs": 4550,
      "wich": 4551,
      "hire": 4552,
      "primary": 4553,
      "repeatedly": 4554,
      "dish": 4555,
      "critics": 4556,
      "mps": 4557,
      "tottenham": 4558,
      "seas": 4559,
      "apy": 4560,
      "encies": 4561,
      "responded": 4562,
      "apped": 4563,
      "aling": 4564,
      "allowing": 4565,
      "contest": 4566,
      "connection": 4567,
      "cock": 4568,
      "feature": 4569,
      "boost": 4570,
      "voted": 4571,
      "kevin": 4572,
      "tray": 4573,
      "passenger": 4574,
      "niger": 4575,
      "usa": 4576,
      "advant": 4577,
      "retired": 4578,
      "rescu": 4579,
      "stol": 4580,
      "debut": 4581,
      "dressed": 4582,
      "hib": 4583,
      "assess": 4584,
      "occup": 4585,
      "holland": 4586,
      "structure": 4587,
      "monitor": 4588,
      "lawsuit": 4589,
      "ariz": 4590,
      "secure": 4591,
      "temperatures": 4592,
      "marine": 4593,
      "gradu": 4594,
      "relatives": 4595,
      "bringing": 4596,
      "prove": 4597,
      "rev": 4598,
      "scream": 4599,
      "accounts": 4600,
      "surprise": 4601,
      "yout": 4602,
      "quie": 4603,
      "bles": 4604,
      "targeted": 4605,
      "cham": 4606,
      "declared": 4607,
      "maria": 4608,
      "0s": 4609,
      "ola": 4610,
      "settle": 4611,
      "53": 4612,
      "directly": 4613,
      "colleagues": 4614,
      "commercial": 4615,
      "hod": 4616,
      "saving": 4617,
      "cambridge": 4618,
      "rating": 4619,
      "formed": 4620,
      "systems": 4621,
      "pin": 4622,
      "restrict": 4623,
      "ena": 4624,
      "youtube": 4625,
      "log": 4626,
      "kitch": 4627,
      "status": 4628,
      "scale": 4629,
      "mari": 4630,
      "standard": 4631,
      "retail": 4632,
      "worried": 4633,
      "cardi": 4634,
      "kin": 4635,
      "celebrate": 4636,
      "jeff": 4637,
      "income": 4638,
      "struggling": 4639,
      "generation": 4640,
      "ride": 4641,
      "asy": 4642,
      "princ": 4643,
      "asia": 4644,
      "yell": 4645,
      "quit": 4646,
      "uge": 4647,
      "56": 4648,
      "sustain": 4649,
      "measure": 4650,
      "maintain": 4651,
      "corner": 4652,
      "proceed": 4653,
      "resour": 4654,
      "manufact": 4655,
      "section": 4656,
      "declined": 4657,
      "ws": 4658,
      "split": 4659,
      "guns": 4660,
      "kir": 4661,
      "adow": 4662,
      "machine": 4663,
      "fergus": 4664,
      "gop": 4665,
      "zeal": 4666,
      "forest": 4667,
      "founder": 4668,
      "militants": 4669,
      "coron": 4670,
      "frust": 4671,
      "incredible": 4672,
      "planet": 4673,
      "mine": 4674,
      "hasn": 4675,
      "2015": 4676,
      "brut": 4677,
      "acknow": 4678,
      "tradition": 4679,
      "stan": 4680,
      "flights": 4681,
      "jay": 4682,
      "kenned": 4683,
      "truth": 4684,
      "jur": 4685,
      "chess": 4686,
      "auction": 4687,
      "climate": 4688,
      "criticism": 4689,
      "ishing": 4690,
      "falling": 4691,
      "circumst": 4692,
      "sele": 4693,
      "glas": 4694,
      "vac": 4695,
      "izing": 4696,
      "historic": 4697,
      "plat": 4698,
      "ached": 4699,
      "posing": 4700,
      "institute": 4701,
      "oul": 4702,
      "signing": 4703,
      "deadly": 4704,
      "frequ": 4705,
      "kelly": 4706,
      "returning": 4707,
      "tells": 4708,
      "punch": 4709,
      "resort": 4710,
      "54": 4711,
      "600": 4712,
      "2001": 4713,
      "soldier": 4714,
      "additional": 4715,
      "entered": 4716,
      "killer": 4717,
      "princess": 4718,
      "elections": 4719,
      "dur": 4720,
      "province": 4721,
      "urged": 4722,
      "plot": 4723,
      "worry": 4724,
      "obviously": 4725,
      "iest": 4726,
      "ode": 4727,
      "buildings": 4728,
      "chi": 4729,
      "celebrity": 4730,
      "wore": 4731,
      "mention": 4732,
      "audience": 4733,
      "tiny": 4734,
      "offering": 4735,
      "rig": 4736,
      "fis": 4737,
      "anny": 4738,
      "strikes": 4739,
      "consc": 4740,
      "57": 4741,
      "erous": 4742,
      "ij": 4743,
      "myster": 4744,
      "weak": 4745,
      "joint": 4746,
      "regist": 4747,
      "ambulance": 4748,
      "kennedy": 4749,
      "lane": 4750,
      "ferguson": 4751,
      "bie": 4752,
      "wy": 4753,
      "comfortable": 4754,
      "mingham": 4755,
      "devices": 4756,
      "palestin": 4757,
      "ification": 4758,
      "bak": 4759,
      "morgan": 4760,
      "symptoms": 4761,
      "wounded": 4762,
      "applic": 4763,
      "banks": 4764,
      "adults": 4765,
      "vit": 4766,
      "wine": 4767,
      "favourite": 4768,
      "birmingham": 4769,
      "fatal": 4770,
      "southampton": 4771,
      "reaction": 4772,
      "cot": 4773,
      "putin": 4774,
      "reduce": 4775,
      "knife": 4776,
      "reven": 4777,
      "festival": 4778,
      "pting": 4779,
      "questioned": 4780,
      "oppon": 4781,
      "analyst": 4782,
      "aston": 4783,
      "keen": 4784,
      "friendly": 4785,
      "poses": 4786,
      "supposed": 4787,
      "ously": 4788,
      "consist": 4789,
      "confirm": 4790,
      "trick": 4791,
      "slam": 4792,
      "agents": 4793,
      "stolen": 4794,
      "ires": 4795,
      "headed": 4796,
      "sending": 4797,
      "nasa": 4798,
      "roberts": 4799,
      "introduced": 4800,
      "51": 4801,
      "grew": 4802,
      "daughters": 4803,
      "coalition": 4804,
      "dd": 4805,
      "rolling": 4806,
      "limit": 4807,
      "spirit": 4808,
      "employment": 4809,
      "roman": 4810,
      "condem": 4811,
      "hong": 4812,
      "journalist": 4813,
      "dating": 4814,
      "suspects": 4815,
      "cath": 4816,
      "quiet": 4817,
      "ceo": 4818,
      "aggress": 4819,
      "prosecution": 4820,
      "medal": 4821,
      "construction": 4822,
      "doors": 4823,
      "unusual": 4824,
      "wart": 4825,
      "58": 4826,
      "completed": 4827,
      "originally": 4828,
      "heads": 4829,
      "effects": 4830,
      "rival": 4831,
      "background": 4832,
      "ored": 4833,
      "nbc": 4834,
      "concl": 4835,
      "miller": 4836,
      "epis": 4837,
      "tat": 4838,
      "funding": 4839,
      "ories": 4840,
      "upset": 4841,
      "ares": 4842,
      "bris": 4843,
      "2002": 4844,
      "threatening": 4845,
      "rooney": 4846,
      "weapon": 4847,
      "zim": 4848,
      "tribute": 4849,
      "tight": 4850,
      "threats": 4851,
      "arizona": 4852,
      "scottish": 4853,
      "depress": 4854,
      "cameras": 4855,
      "rice": 4856,
      "09": 4857,
      "250": 4858,
      "allows": 4859,
      "japanese": 4860,
      "drawn": 4861,
      "overall": 4862,
      "colour": 4863,
      "beating": 4864,
      "establish": 4865,
      "icken": 4866,
      "receiving": 4867,
      "59": 4868,
      "individuals": 4869,
      "definitely": 4870,
      "recru": 4871,
      "disco": 4872,
      "lind": 4873,
      "teachers": 4874,
      "involve": 4875,
      "abc": 4876,
      "roof": 4877,
      "chest": 4878,
      "800": 4879,
      "legend": 4880,
      "lau": 4881,
      "feels": 4882,
      "passing": 4883,
      "whate": 4884,
      "laps": 4885,
      "ero": 4886,
      "pieces": 4887,
      "wick": 4888,
      "elli": 4889,
      "whatever": 4890,
      "saved": 4891,
      "experienced": 4892,
      "debt": 4893,
      "damaged": 4894,
      "stores": 4895,
      "destroyed": 4896,
      "designer": 4897,
      "involving": 4898,
      "decide": 4899,
      "disaster": 4900,
      "meat": 4901,
      "outs": 4902,
      "aldo": 4903,
      "heading": 4904,
      "edge": 4905,
      "models": 4906,
      "businesses": 4907,
      "tam": 4908,
      "tes": 4909,
      "tea": 4910,
      "07": 4911,
      "dale": 4912,
      "stein": 4913,
      "argentina": 4914,
      "backed": 4915,
      "berry": 4916,
      "kit": 4917,
      "uck": 4918,
      "versary": 4919,
      "refuge": 4920,
      "itude": 4921,
      "welcome": 4922,
      "exercise": 4923,
      "housing": 4924,
      "kitchen": 4925,
      "haw": 4926,
      "math": 4927,
      "elder": 4928,
      "viet": 4929,
      "hatt": 4930,
      "ww": 4931,
      "gad": 4932,
      "2000": 4933,
      "enjo": 4934,
      "grown": 4935,
      "facility": 4936,
      "babies": 4937,
      "unfortun": 4938,
      "domin": 4939,
      "neighborhood": 4940,
      "eliza": 4941,
      "inquiry": 4942,
      "consult": 4943,
      "suggests": 4944,
      "sharp": 4945,
      "lia": 4946,
      "ifying": 4947,
      "maker": 4948,
      "listed": 4949,
      "studies": 4950,
      "smoke": 4951,
      "zealand": 4952,
      "matthe": 4953,
      "kong": 4954,
      "possib": 4955,
      "exchange": 4956,
      "task": 4957,
      "adult": 4958,
      "lighted": 4959,
      "ruption": 4960,
      "string": 4961,
      "circumstances": 4962,
      "duchess": 4963,
      "enjoyed": 4964,
      "everybody": 4965,
      "survived": 4966,
      "dum": 4967,
      "clay": 4968,
      "helps": 4969,
      "regularly": 4970,
      "shape": 4971,
      "ingly": 4972,
      "syl": 4973,
      "bare": 4974,
      "ables": 4975,
      "diego": 4976,
      "leaves": 4977,
      "owed": 4978,
      "crimin": 4979,
      "everton": 4980,
      "mourinho": 4981,
      "conscious": 4982,
      "escap": 4983,
      "drew": 4984,
      "utions": 4985,
      "correct": 4986,
      "revolution": 4987,
      "yellow": 4988,
      "noted": 4989,
      "strength": 4990,
      "failing": 4991,
      "rough": 4992,
      "conv": 4993,
      "dna": 4994,
      "zen": 4995,
      "rass": 4996,
      "species": 4997,
      "understood": 4998,
      "increasingly": 4999,
      "thus": 5000,
      "tag": 5001,
      "creating": 5002,
      "costa": 5003,
      "bian": 5004,
      "produce": 5005,
      "memory": 5006,
      "pushed": 5007,
      "pill": 5008,
      "inspir": 5009,
      "drove": 5010,
      "davis": 5011,
      "06": 5012,
      "anniversary": 5013,
      "vals": 5014,
      "waters": 5015,
      "jon": 5016,
      "iano": 5017,
      "activities": 5018,
      "det": 5019,
      "providing": 5020,
      "affairs": 5021,
      "write": 5022,
      "adm": 5023,
      "plastic": 5024,
      "hugh": 5025,
      "quarters": 5026,
      "crashed": 5027,
      "lunch": 5028,
      "taxpay": 5029,
      "likes": 5030,
      "vulner": 5031,
      "mut": 5032,
      "scan": 5033,
      "mili": 5034,
      "pull": 5035,
      "pope": 5036,
      "miami": 5037,
      "larger": 5038,
      "influence": 5039,
      "atlanta": 5040,
      "plays": 5041,
      "remark": 5042,
      "olympics": 5043,
      "clar": 5044,
      "click": 5045,
      "tool": 5046,
      "advantage": 5047,
      "dance": 5048,
      "analys": 5049,
      "aret": 5050,
      "vast": 5051,
      "corn": 5052,
      "bron": 5053,
      "complaint": 5054,
      "cycl": 5055,
      "interested": 5056,
      "ushing": 5057,
      "resist": 5058,
      "yorkshire": 5059,
      "bags": 5060,
      "learning": 5061,
      "sis": 5062,
      "presence": 5063,
      "bigger": 5064,
      "complaints": 5065,
      "rank": 5066,
      "exclus": 5067,
      "ura": 5068,
      "opted": 5069,
      "intended": 5070,
      "prize": 5071,
      "stro": 5072,
      "alled": 5073,
      "policies": 5074,
      "announcement": 5075,
      "journalists": 5076,
      "communities": 5077,
      "embarrass": 5078,
      "otic": 5079,
      "route": 5080,
      "helicopter": 5081,
      "ronaldo": 5082,
      "colorado": 5083,
      "struggle": 5084,
      "causes": 5085,
      "gov": 5086,
      "morrow": 5087,
      "awards": 5088,
      "belief": 5089,
      "borne": 5090,
      "lum": 5091,
      "assad": 5092,
      "busy": 5093,
      "embass": 5094,
      "surrounding": 5095,
      "valley": 5096,
      "kur": 5097,
      "icket": 5098,
      "surveill": 5099,
      "airs": 5100,
      "rence": 5101,
      "dutch": 5102,
      "iro": 5103,
      "vessel": 5104,
      "brea": 5105,
      "cards": 5106,
      "inquest": 5107,
      "miliband": 5108,
      "surveillance": 5109,
      "traum": 5110,
      "suarez": 5111,
      "sett": 5112,
      "please": 5113,
      "engage": 5114,
      "passion": 5115,
      "academy": 5116,
      "evans": 5117,
      "letters": 5118,
      "driven": 5119,
      "knowledge": 5120,
      "argued": 5121,
      "unve": 5122,
      "explain": 5123,
      "lig": 5124,
      "perman": 5125,
      "ius": 5126,
      "scheme": 5127,
      "ologist": 5128,
      "attempts": 5129,
      "treas": 5130,
      "reflect": 5131,
      "shocking": 5132,
      "bars": 5133,
      "cole": 5134,
      "anony": 5135,
      "terrif": 5136,
      "jes": 5137,
      "ongoing": 5138,
      "ohio": 5139,
      "potentially": 5140,
      "blame": 5141,
      "rushed": 5142,
      "honor": 5143,
      "veteran": 5144,
      "trained": 5145,
      "relations": 5146,
      "closer": 5147,
      "code": 5148,
      "sought": 5149,
      "tomorrow": 5150,
      "rela": 5151,
      "grandmother": 5152,
      "rebels": 5153,
      "noticed": 5154,
      "trail": 5155,
      "skills": 5156,
      "fix": 5157,
      "fallen": 5158,
      "investment": 5159,
      "pist": 5160,
      "viewers": 5161,
      "equal": 5162,
      "evac": 5163,
      "visiting": 5164,
      "subur": 5165,
      "elizabeth": 5166,
      "contacted": 5167,
      "shadow": 5168,
      "sac": 5169,
      "dramatic": 5170,
      "lips": 5171,
      "wid": 5172,
      "astic": 5173,
      "ape": 5174,
      "lots": 5175,
      "patch": 5176,
      "assu": 5177,
      "bull": 5178,
      "05": 5179,
      "embr": 5180,
      "locked": 5181,
      "legislation": 5182,
      "pursu": 5183,
      "expand": 5184,
      "discovery": 5185,
      "orders": 5186,
      "roads": 5187,
      "accepted": 5188,
      "essential": 5189,
      "blind": 5190,
      "juana": 5191,
      "cope": 5192,
      "scr": 5193,
      "confess": 5194,
      "slight": 5195,
      "identity": 5196,
      "featured": 5197,
      "fili": 5198,
      "function": 5199,
      "advoc": 5200,
      "recovered": 5201,
      "woods": 5202,
      "wayne": 5203,
      "focused": 5204,
      "ministers": 5205,
      "tennis": 5206,
      "murdered": 5207,
      "jess": 5208,
      "scow": 5209,
      "remot": 5210,
      "resources": 5211,
      "determ": 5212,
      "easily": 5213,
      "determine": 5214,
      "tourists": 5215,
      "semi": 5216,
      "guards": 5217,
      "hamilton": 5218,
      "apping": 5219,
      "unlikely": 5220,
      "hospitals": 5221,
      "sexually": 5222,
      "anderson": 5223,
      "hone": 5224,
      "ec": 5225,
      "setts": 5226,
      "patrick": 5227,
      "plants": 5228,
      "tears": 5229,
      "identify": 5230,
      "sparked": 5231,
      "mistake": 5232,
      "forms": 5233,
      "gap": 5234,
      "options": 5235,
      "enders": 5236,
      "liter": 5237,
      "cry": 5238,
      "sque": 5239,
      "verdict": 5240,
      "profit": 5241,
      "dry": 5242,
      "rio": 5243,
      "legally": 5244,
      "occasion": 5245,
      "nandez": 5246,
      "fred": 5247,
      "pleas": 5248,
      "inches": 5249,
      "iraqi": 5250,
      "decisions": 5251,
      "swed": 5252,
      "conspir": 5253,
      "proved": 5254,
      "quot": 5255,
      "chusetts": 5256,
      "airline": 5257,
      "tort": 5258,
      "agu": 5259,
      "massachusetts": 5260,
      "whel": 5261,
      "advan": 5262,
      "happens": 5263,
      "fru": 5264,
      "effective": 5265,
      "norm": 5266,
      "testing": 5267,
      "appre": 5268,
      "abu": 5269,
      "valu": 5270,
      "staying": 5271,
      "aled": 5272,
      "tie": 5273,
      "fought": 5274,
      "bai": 5275,
      "filmed": 5276,
      "earned": 5277,
      "remote": 5278,
      "cof": 5279,
      "wave": 5280,
      "ijing": 5281,
      "bird": 5282,
      "conversation": 5283,
      "pub": 5284,
      "rejected": 5285,
      "patter": 5286,
      "assaul": 5287,
      "performed": 5288,
      "landing": 5289,
      "moscow": 5290,
      "mann": 5291,
      "allen": 5292,
      "films": 5293,
      "behavior": 5294,
      "nurse": 5295,
      "angel": 5296,
      "findings": 5297,
      "travelling": 5298,
      "beijing": 5299,
      "dio": 5300,
      "ambass": 5301,
      "wins": 5302,
      "ticket": 5303,
      "iding": 5304,
      "mich": 5305,
      "proposed": 5306,
      "possibility": 5307,
      "michelle": 5308,
      "grade": 5309,
      "reput": 5310,
      "activists": 5311,
      "hate": 5312,
      "2016": 5313,
      "operating": 5314,
      "politicians": 5315,
      "shout": 5316,
      "iction": 5317,
      "todd": 5318,
      "sees": 5319,
      "mostly": 5320,
      "gon": 5321,
      "boast": 5322,
      "tural": 5323,
      "bike": 5324,
      "agon": 5325,
      "republic": 5326,
      "surprised": 5327,
      "inte": 5328,
      "boe": 5329,
      "metal": 5330,
      "cate": 5331,
      "ronic": 5332,
      "fighter": 5333,
      "fifa": 5334,
      "notice": 5335,
      "numerous": 5336,
      "robber": 5337,
      "combat": 5338,
      "distri": 5339,
      "immediate": 5340,
      "bone": 5341,
      "struggled": 5342,
      "torn": 5343,
      "distribut": 5344,
      "surviv": 5345,
      "choose": 5346,
      "laughter": 5347,
      "milan": 5348,
      "dollars": 5349,
      "compens": 5350,
      "henry": 5351,
      "sphere": 5352,
      "deploy": 5353,
      "developing": 5354,
      "andre": 5355,
      "considering": 5356,
      "stuck": 5357,
      "atmo": 5358,
      "loaded": 5359,
      "deeply": 5360,
      "delivered": 5361,
      "icts": 5362,
      "saudi": 5363,
      "painting": 5364,
      "consequ": 5365,
      "candidates": 5366,
      "punish": 5367,
      "atest": 5368,
      "iron": 5369,
      "grace": 5370,
      "fford": 5371,
      "attle": 5372,
      "happening": 5373,
      "desperate": 5374,
      "method": 5375,
      "greatest": 5376,
      "manhatt": 5377,
      "relief": 5378,
      "marijuana": 5379,
      "agram": 5380,
      "ships": 5381,
      "philip": 5382,
      "cott": 5383,
      "gathered": 5384,
      "direction": 5385,
      "manhattan": 5386,
      "divorce": 5387,
      "bren": 5388,
      "inct": 5389,
      "funds": 5390,
      "brian": 5391,
      "stunning": 5392,
      "leice": 5393,
      "conducted": 5394,
      "sterling": 5395,
      "buying": 5396,
      "ental": 5397,
      "publicly": 5398,
      "smaller": 5399,
      "incidents": 5400,
      "employee": 5401,
      "privacy": 5402,
      "inch": 5403,
      "writer": 5404,
      "citizen": 5405,
      "ports": 5406,
      "cells": 5407,
      "trees": 5408,
      "thrown": 5409,
      "contr": 5410,
      "properly": 5411,
      "chances": 5412,
      "worldwide": 5413,
      "golden": 5414,
      "complic": 5415,
      "clark": 5416,
      "possibly": 5417,
      "stayed": 5418,
      "factor": 5419,
      "affili": 5420,
      "refere": 5421,
      "sym": 5422,
      "fficient": 5423,
      "coverage": 5424,
      "windows": 5425,
      "messi": 5426,
      "tested": 5427,
      "prospect": 5428,
      "client": 5429,
      "buried": 5430,
      "teenage": 5431,
      "distance": 5432,
      "hull": 5433,
      "cryst": 5434,
      "integr": 5435,
      "challenges": 5436,
      "pu": 5437,
      "francisco": 5438,
      "pink": 5439,
      "ington": 5440,
      "jihad": 5441,
      "approved": 5442,
      "scenes": 5443,
      "devastated": 5444,
      "nobody": 5445,
      "blamed": 5446,
      "instagram": 5447,
      "promised": 5448,
      "vulnerable": 5449,
      "stom": 5450,
      "phe": 5451,
      "calm": 5452,
      "aces": 5453,
      "elected": 5454,
      "widely": 5455,
      "prefer": 5456,
      "cig": 5457,
      "nfl": 5458,
      "swimming": 5459,
      "trigger": 5460,
      "presented": 5461,
      "enty": 5462,
      "marsh": 5463,
      "sic": 5464,
      "ads": 5465,
      "satis": 5466,
      "alexander": 5467,
      "controver": 5468,
      "acked": 5469,
      "brutal": 5470,
      "embassy": 5471,
      "lion": 5472,
      "detectives": 5473,
      "capture": 5474,
      "pension": 5475,
      "duke": 5476,
      "ogra": 5477,
      "vet": 5478,
      "celebrates": 5479,
      "possession": 5480,
      "personnel": 5481,
      "routine": 5482,
      "leon": 5483,
      "unless": 5484,
      "zoo": 5485,
      "cathol": 5486,
      "isol": 5487,
      "swan": 5488,
      "landed": 5489,
      "tend": 5490,
      "temporary": 5491,
      "iar": 5492,
      "humans": 5493,
      "controlled": 5494,
      "acknowled": 5495,
      "dul": 5496,
      "paral": 5497,
      "shoes": 5498,
      "supported": 5499,
      "heavily": 5500,
      "libya": 5501,
      "entertainment": 5502,
      "controversy": 5503,
      "abandoned": 5504,
      "charlie": 5505,
      "oli": 5506,
      "clothing": 5507,
      "seats": 5508,
      "dim": 5509,
      "illa": 5510,
      "ouse": 5511,
      "neither": 5512,
      "kers": 5513,
      "ugu": 5514,
      "largely": 5515,
      "mexican": 5516,
      "matic": 5517,
      "markets": 5518,
      "usion": 5519,
      "anton": 5520,
      "gym": 5521,
      "rand": 5522,
      "encourage": 5523,
      "llor": 5524,
      "album": 5525,
      "gio": 5526,
      "offences": 5527,
      "metro": 5528,
      "grounds": 5529,
      "complained": 5530,
      "pointing": 5531,
      "flee": 5532,
      "borough": 5533,
      "indeed": 5534,
      "coffee": 5535,
      "prec": 5536,
      "jane": 5537,
      "commissioner": 5538,
      "stabbed": 5539,
      "oscar": 5540,
      "cutting": 5541,
      "tall": 5542,
      "disorder": 5543,
      "morris": 5544,
      "planes": 5545,
      "terrorists": 5546,
      "islands": 5547,
      "gender": 5548,
      "length": 5549,
      "grav": 5550,
      "fold": 5551,
      "diam": 5552,
      "mers": 5553,
      "racing": 5554,
      "dismissed": 5555,
      "supply": 5556,
      "inet": 5557,
      "racial": 5558,
      "walker": 5559,
      "oked": 5560,
      "pupils": 5561,
      "collaps": 5562,
      "burgh": 5563,
      "wright": 5564,
      "initi": 5565,
      "retire": 5566,
      "impressive": 5567,
      "hamp": 5568,
      "disci": 5569,
      "magist": 5570,
      "ivity": 5571,
      "investigate": 5572,
      "ching": 5573,
      "offensive": 5574,
      "burst": 5575,
      "parking": 5576,
      "sin": 5577,
      "basis": 5578,
      "ambassador": 5579,
      "khan": 5580,
      "outrage": 5581,
      "hoped": 5582,
      "marked": 5583,
      "strategy": 5584,
      "matthew": 5585,
      "agger": 5586,
      "iat": 5587,
      "uss": 5588,
      "negative": 5589,
      "habit": 5590,
      "recording": 5591,
      "intent": 5592,
      "lift": 5593,
      "adds": 5594,
      "ae": 5595,
      "knee": 5596,
      "jump": 5597,
      "agencies": 5598,
      "queens": 5599,
      "excited": 5600,
      "malay": 5601,
      "civilians": 5602,
      "aced": 5603,
      "barri": 5604,
      "bills": 5605,
      "ula": 5606,
      "eag": 5607,
      "josh": 5608,
      "abs": 5609,
      "adel": 5610,
      "bust": 5611,
      "remaining": 5612,
      "prisoners": 5613,
      "disappeared": 5614,
      "zon": 5615,
      "astron": 5616,
      "enses": 5617,
      "infection": 5618,
      "intim": 5619,
      "chap": 5620,
      "iner": 5621,
      "imagine": 5622,
      "haz": 5623,
      "somebody": 5624,
      "mars": 5625,
      "guys": 5626,
      "700": 5627,
      "forecast": 5628,
      "lished": 5629,
      "iranian": 5630,
      "tower": 5631,
      "shore": 5632,
      "established": 5633,
      "motiv": 5634,
      "pig": 5635,
      "nato": 5636,
      "tonight": 5637,
      "detective": 5638,
      "graham": 5639,
      "plenty": 5640,
      "goalkeeper": 5641,
      "sme": 5642,
      "jr": 5643,
      "digital": 5644,
      "waste": 5645,
      "vania": 5646,
      "canad": 5647,
      "ifer": 5648,
      "rapid": 5649,
      "supporting": 5650,
      "impossible": 5651,
      "ansas": 5652,
      "mini": 5653,
      "balance": 5654,
      "igno": 5655,
      "sharing": 5656,
      "shaw": 5657,
      "aud": 5658,
      "colom": 5659,
      "classic": 5660,
      "discipl": 5661,
      "deli": 5662,
      "seized": 5663,
      "gif": 5664,
      "weren": 5665,
      "courts": 5666,
      "(£": 5667,
      "replaced": 5668,
      "brow": 5669,
      "internal": 5670,
      "opher": 5671,
      "elderly": 5672,
      "jason": 5673,
      "parent": 5674,
      "rugby": 5675,
      "04": 5676,
      "hidden": 5677,
      "iter": 5678,
      "tox": 5679,
      "virt": 5680,
      "division": 5681,
      "ultimately": 5682,
      "ques": 5683,
      "cers": 5684,
      "ctv": 5685,
      "dc": 5686,
      "igue": 5687,
      "targets": 5688,
      "yourself": 5689,
      "connected": 5690,
      "77": 5691,
      "vital": 5692,
      "breach": 5693,
      "founded": 5694,
      "exposed": 5695,
      "joining": 5696,
      "tact": 5697,
      "nell": 5698,
      "indict": 5699,
      "bottle": 5700,
      "mothers": 5701,
      "arre": 5702,
      "copy": 5703,
      "joseph": 5704,
      "marg": 5705,
      "spr": 5706,
      "pennsyl": 5707,
      "anci": 5708,
      "turk": 5709,
      "wonderful": 5710,
      "ela": 5711,
      "asc": 5712,
      "understanding": 5713,
      "grave": 5714,
      "tank": 5715,
      "sugar": 5716,
      "enem": 5717,
      "apt": 5718,
      "ounced": 5719,
      "tickets": 5720,
      "lun": 5721,
      "fake": 5722,
      "irish": 5723,
      "reputation": 5724,
      "aking": 5725,
      "forget": 5726,
      "communications": 5727,
      "techni": 5728,
      "notes": 5729,
      "suddenly": 5730,
      "pennsylvania": 5731,
      "iring": 5732,
      "sate": 5733,
      "mix": 5734,
      "caine": 5735,
      "nose": 5736,
      "granted": 5737,
      "ware": 5738,
      "iser": 5739,
      "stepped": 5740,
      "rivals": 5741,
      "lav": 5742,
      "smoking": 5743,
      "bench": 5744,
      "luis": 5745,
      "laid": 5746,
      "kerry": 5747,
      "terrible": 5748,
      "muslims": 5749,
      "remarks": 5750,
      "chose": 5751,
      "insists": 5752,
      "conce": 5753,
      "unknown": 5754,
      "ancient": 5755,
      "gotten": 5756,
      "normally": 5757,
      "worn": 5758,
      "consumers": 5759,
      "bbed": 5760,
      "rot": 5761,
      "talked": 5762,
      "ales": 5763,
      "dozen": 5764,
      "essex": 5765,
      "coroner": 5766,
      "moves": 5767,
      "1970": 5768,
      "reveals": 5769,
      "vacc": 5770,
      "awarded": 5771,
      "admits": 5772,
      "tied": 5773,
      "hell": 5774,
      "whit": 5775,
      "innocent": 5776,
      "birds": 5777,
      "newly": 5778,
      "programs": 5779,
      "portion": 5780,
      "collapsed": 5781,
      "watson": 5782,
      "fitness": 5783,
      "flash": 5784,
      "terry": 5785,
      "clinic": 5786,
      "wra": 5787,
      "advent": 5788,
      "satell": 5789,
      "solid": 5790,
      "elsewhere": 5791,
      "abort": 5792,
      "pover": 5793,
      "ulous": 5794,
      "knowing": 5795,
      "couples": 5796,
      "symbol": 5797,
      "commander": 5798,
      "defending": 5799,
      "truly": 5800,
      "sted": 5801,
      "basket": 5802,
      "defendant": 5803,
      "flowers": 5804,
      "scores": 5805,
      "dir": 5806,
      "vegas": 5807,
      "quake": 5808,
      "thinks": 5809,
      "hitting": 5810,
      "horrific": 5811,
      "distur": 5812,
      "reduced": 5813,
      "aire": 5814,
      "amy": 5815,
      "winds": 5816,
      "welfare": 5817,
      "thoughts": 5818,
      "rush": 5819,
      "outbreak": 5820,
      "powers": 5821,
      "arrive": 5822,
      "criticised": 5823,
      "jona": 5824,
      "sul": 5825,
      "bayern": 5826,
      "lined": 5827,
      "explosion": 5828,
      "leicester": 5829,
      "ogue": 5830,
      "derby": 5831,
      "assistance": 5832,
      "ix": 5833,
      "tap": 5834,
      "solar": 5835,
      "jonathan": 5836,
      "istics": 5837,
      "biz": 5838,
      "overwhel": 5839,
      "abled": 5840,
      "alternative": 5841,
      "empty": 5842,
      "ashley": 5843,
      "ume": 5844,
      "acle": 5845,
      "appearances": 5846,
      "continuing": 5847,
      "deter": 5848,
      "core": 5849,
      "easier": 5850,
      "pear": 5851,
      "riot": 5852,
      "66": 5853,
      "arrival": 5854,
      "waves": 5855,
      "cabinet": 5856,
      "crystal": 5857,
      "smile": 5858,
      "conviction": 5859,
      "melbourne": 5860,
      "environmental": 5861,
      "corruption": 5862,
      "blan": 5863,
      "houston": 5864,
      "customer": 5865,
      "pregnancy": 5866,
      "analysis": 5867,
      "snap": 5868,
      "raw": 5869,
      "flew": 5870,
      "incredibly": 5871,
      "liberal": 5872,
      "vig": 5873,
      "appoint": 5874,
      "referred": 5875,
      "ukip": 5876,
      "firefighters": 5877,
      "argument": 5878,
      "wildlife": 5879,
      "****": 5880,
      "naked": 5881,
      "christopher": 5882,
      "swi": 5883,
      "illing": 5884,
      "interests": 5885,
      "toy": 5886,
      "neighbours": 5887,
      "acceptable": 5888,
      "magn": 5889,
      "survive": 5890,
      "cctv": 5891,
      "infl": 5892,
      "wenger": 5893,
      "veterans": 5894,
      "solution": 5895,
      "regional": 5896,
      "gulf": 5897,
      "gage": 5898,
      "ization": 5899,
      "oxford": 5900,
      "abroad": 5901,
      "independence": 5902,
      "toile": 5903,
      "stomach": 5904,
      "moore": 5905,
      "episode": 5906,
      "vy": 5907,
      "legg": 5908,
      "emma": 5909,
      "feared": 5910,
      "anx": 5911,
      "grass": 5912,
      "gment": 5913,
      "height": 5914,
      "herit": 5915,
      "acre": 5916,
      "senator": 5917,
      "raped": 5918,
      "jenn": 5919,
      "meal": 5920,
      "cocaine": 5921,
      "tware": 5922,
      "escaped": 5923,
      "santa": 5924,
      "starts": 5925,
      "software": 5926,
      "risks": 5927,
      "sanctions": 5928,
      "chef": 5929,
      "milk": 5930,
      "basic": 5931,
      "judges": 5932,
      "statements": 5933,
      "employed": 5934,
      "asian": 5935,
      "honest": 5936,
      "finger": 5937,
      "follows": 5938,
      "bowl": 5939,
      "realised": 5940,
      "uro": 5941,
      "gow": 5942,
      "guardi": 5943,
      "uated": 5944,
      "followers": 5945,
      "indones": 5946,
      "rial": 5947,
      "contra": 5948,
      "cav": 5949,
      "drunk": 5950,
      "accur": 5951,
      "atlantic": 5952,
      "sung": 5953,
      "mast": 5954,
      "organisation": 5955,
      "sporting": 5956,
      "shops": 5957,
      "threw": 5958,
      "fined": 5959,
      "laden": 5960,
      "michigan": 5961,
      "hab": 5962,
      "aks": 5963,
      "dying": 5964,
      "ios": 5965,
      "dee": 5966,
      "searching": 5967,
      "christie": 5968,
      "gaza": 5969,
      "harass": 5970,
      "ranged": 5971,
      "rodgers": 5972,
      "plea": 5973,
      "craig": 5974,
      "isters": 5975,
      "nov": 5976,
      "atmosphere": 5977,
      "ulated": 5978,
      "surprising": 5979,
      "prompted": 5980,
      "prescri": 5981,
      "aco": 5982,
      "cruise": 5983,
      "edin": 5984,
      "marry": 5985,
      "canadian": 5986,
      "edward": 5987,
      "icking": 5988,
      "cel": 5989,
      "cleared": 5990,
      "palestinian": 5991,
      "allas": 5992,
      "pc": 5993,
      "bloom": 5994,
      "brilli": 5995,
      "jennifer": 5996,
      "pound": 5997,
      "approached": 5998,
      "suff": 5999,
      "patrol": 6000,
      "deliber": 6001,
      "radical": 6002,
      "itors": 6003,
      "acity": 6004,
      "orange": 6005,
      "archite": 6006,
      "immigrants": 6007,
      "excess": 6008,
      "robinson": 6009,
      "wis": 6010,
      "67": 6011,
      "gordon": 6012,
      "architect": 6013,
      "hide": 6014,
      "concent": 6015,
      "drama": 6016,
      "totally": 6017,
      "cricket": 6018,
      "finals": 6019,
      "closely": 6020,
      "chancellor": 6021,
      "inations": 6022,
      "inspiration": 6023,
      "opinions": 6024,
      "unclear": 6025,
      "kay": 6026,
      "grey": 6027,
      "tering": 6028,
      "leads": 6029,
      "upper": 6030,
      "chell": 6031,
      "mitted": 6032,
      "cann": 6033,
      "neil": 6034,
      "fruit": 6035,
      "ila": 6036,
      "medicine": 6037,
      "procedure": 6038,
      "attacking": 6039,
      "aded": 6040,
      "jamie": 6041,
      "sunder": 6042,
      "85": 6043,
      "surrounded": 6044,
      "wim": 6045,
      "gig": 6046,
      "depression": 6047,
      "evol": 6048,
      "els": 6049,
      "engaged": 6050,
      "mack": 6051,
      "1999": 6052,
      "bishop": 6053,
      "concluded": 6054,
      "tackle": 6055,
      "encounter": 6056,
      "hills": 6057,
      "proposal": 6058,
      "dealing": 6059,
      "brist": 6060,
      "invited": 6061,
      "referee": 6062,
      "defe": 6063,
      "bure": 6064,
      "catholic": 6065,
      "hl": 6066,
      "jumped": 6067,
      "nap": 6068,
      "preparing": 6069,
      "revel": 6070,
      "tattoo": 6071,
      "assem": 6072,
      "summit": 6073,
      "jere": 6074,
      "org": 6075,
      "theft": 6076,
      "iconic": 6077,
      "falls": 6078,
      "badly": 6079,
      "provides": 6080,
      "theat": 6081,
      "celebrities": 6082,
      "lifestyle": 6083,
      "familiar": 6084,
      "rally": 6085,
      "print": 6086,
      "ey": 6087,
      "zimmer": 6088,
      "sunderland": 6089,
      "keting": 6090,
      "thomp": 6091,
      "detained": 6092,
      "button": 6093,
      "sleeping": 6094,
      "hug": 6095,
      "proof": 6096,
      "accus": 6097,
      "cycle": 6098,
      "rat": 6099,
      "abdu": 6100,
      "aska": 6101,
      "slightly": 6102,
      "stoke": 6103,
      "capable": 6104,
      "mod": 6105,
      "minimum": 6106,
      "hughes": 6107,
      "compensation": 6108,
      "factory": 6109,
      "stable": 6110,
      "yemen": 6111,
      "ouri": 6112,
      "danny": 6113,
      "zes": 6114,
      "chocol": 6115,
      "bby": 6116,
      "permission": 6117,
      "thetic": 6118,
      "suspicion": 6119,
      "gift": 6120,
      "pushing": 6121,
      "fantastic": 6122,
      "beer": 6123,
      "rural": 6124,
      "tweet": 6125,
      "turns": 6126,
      "interior": 6127,
      "visible": 6128,
      "mall": 6129,
      "km": 6130,
      "pakistani": 6131,
      "testified": 6132,
      "jean": 6133,
      "annah": 6134,
      "aimed": 6135,
      "denies": 6136,
      "thompson": 6137,
      "poison": 6138,
      "theast": 6139,
      "ukrain": 6140,
      "campbell": 6141,
      "trend": 6142,
      "testim": 6143,
      "03": 6144,
      "abused": 6145,
      "hernandez": 6146,
      "documentary": 6147,
      "bent": 6148,
      "lapse": 6149,
      "rican": 6150,
      "erup": 6151,
      "leeds": 6152,
      "von": 6153,
      "raf": 6154,
      "enjoying": 6155,
      "mol": 6156,
      "olds": 6157,
      "decor": 6158,
      "!\"": 6159,
      "nich": 6160,
      "rodr": 6161,
      "manuel": 6162,
      "extraordinary": 6163,
      "wan": 6164,
      "yards": 6165,
      "pau": 6166,
      "favorite": 6167,
      "ovic": 6168,
      "multi": 6169,
      "shell": 6170,
      "arriving": 6171,
      "nad": 6172,
      "strange": 6173,
      "jewish": 6174,
      "fees": 6175,
      "coura": 6176,
      "listen": 6177,
      "rocket": 6178,
      "ridge": 6179,
      "expl": 6180,
      "trapped": 6181,
      "racist": 6182,
      "prob": 6183,
      "bureau": 6184,
      "thro": 6185,
      "prepare": 6186,
      "eding": 6187,
      "mov": 6188,
      "stated": 6189,
      "jessica": 6190,
      "ulate": 6191,
      "warrant": 6192,
      "dust": 6193,
      "sweet": 6194,
      "gates": 6195,
      "holder": 6196,
      "investigated": 6197,
      "replied": 6198,
      "balls": 6199,
      "scared": 6200,
      "spell": 6201,
      "breath": 6202,
      "rescued": 6203,
      "68": 6204,
      "wol": 6205,
      "dispute": 6206,
      "greece": 6207,
      "specialist": 6208,
      "appreci": 6209,
      "62": 6210,
      "graphic": 6211,
      "distr": 6212,
      "gil": 6213,
      "weekly": 6214,
      "otherwise": 6215,
      "unfortunately": 6216,
      "shed": 6217,
      "hadn": 6218,
      "sixth": 6219,
      "casual": 6220,
      "shares": 6221,
      "overseas": 6222,
      "swansea": 6223,
      "cart": 6224,
      "rebel": 6225,
      "sentencing": 6226,
      "lifted": 6227,
      "hut": 6228,
      "mud": 6229,
      "dal": 6230,
      "bombing": 6231,
      "conspiracy": 6232,
      "cream": 6233,
      "knocked": 6234,
      "64": 6235,
      "recalled": 6236,
      "qat": 6237,
      "shouldn": 6238,
      "marath": 6239,
      "administr": 6240,
      "becomes": 6241,
      "nigeria": 6242,
      "strang": 6243,
      "narrow": 6244,
      "chat": 6245,
      "perry": 6246,
      "subsequ": 6247,
      "presenter": 6248,
      "intense": 6249,
      "turkish": 6250,
      "involvement": 6251,
      "hey": 6252,
      "walls": 6253,
      "wreck": 6254,
      "votes": 6255,
      "kilome": 6256,
      "appearing": 6257,
      "permanent": 6258,
      "cles": 6259,
      "preser": 6260,
      "ipal": 6261,
      "kicked": 6262,
      "nett": 6263,
      "metres": 6264,
      "exhib": 6265,
      "distress": 6266,
      "childhood": 6267,
      "informed": 6268,
      "ented": 6269,
      "explains": 6270,
      "thin": 6271,
      "dedicated": 6272,
      "remind": 6273,
      "behalf": 6274,
      "hud": 6275,
      "anonymous": 6276,
      "sisters": 6277,
      "matters": 6278,
      "bash": 6279,
      "rangers": 6280,
      "foster": 6281,
      "posting": 6282,
      "imple": 6283,
      "carl": 6284,
      "drinks": 6285,
      "mansion": 6286,
      "facilities": 6287,
      "hampshire": 6288,
      "abdul": 6289,
      "firms": 6290,
      "hunting": 6291,
      "owns": 6292,
      "reaching": 6293,
      "campus": 6294,
      "purpose": 6295,
      "preced": 6296,
      "bullet": 6297,
      "experiment": 6298,
      "robin": 6299,
      "iti": 6300,
      "hillary": 6301,
      "ideas": 6302,
      "dancing": 6303,
      "grat": 6304,
      "chosen": 6305,
      "relatively": 6306,
      "xim": 6307,
      "cous": 6308,
      "reporting": 6309,
      "panic": 6310,
      "describes": 6311,
      "thal": 6312,
      "itarian": 6313,
      "compete": 6314,
      "fame": 6315,
      "jimmy": 6316,
      "dallas": 6317,
      "trafford": 6318,
      "recommend": 6319,
      "loud": 6320,
      "aught": 6321,
      "ache": 6322,
      "sandy": 6323,
      "devastating": 6324,
      "ids": 6325,
      "grim": 6326,
      "abbott": 6327,
      "performing": 6328,
      "brazilian": 6329,
      "waited": 6330,
      "element": 6331,
      "fewer": 6332,
      "synd": 6333,
      "barbar": 6334,
      "entirely": 6335,
      "shoulder": 6336,
      "disappearance": 6337,
      "veget": 6338,
      "asks": 6339,
      "begins": 6340,
      "vey": 6341,
      "maximum": 6342,
      "pacific": 6343,
      "payments": 6344,
      "properties": 6345,
      "solely": 6346,
      "dave": 6347,
      "speaker": 6348,
      "cree": 6349,
      "packed": 6350,
      "wides": 6351,
      "adopted": 6352,
      "rah": 6353,
      "creation": 6354,
      "lists": 6355,
      "bizarre": 6356,
      "intention": 6357,
      "frame": 6358,
      "1998": 6359,
      "stairs": 6360,
      "guaran": 6361,
      "chip": 6362,
      "juli": 6363,
      "handle": 6364,
      "posts": 6365,
      "democracy": 6366,
      "laura": 6367,
      "obtained": 6368,
      "fc": 6369,
      "rene": 6370,
      "voy": 6371,
      "bathroom": 6372,
      "highway": 6373,
      "okla": 6374,
      "advance": 6375,
      "minster": 6376,
      "characters": 6377,
      "nig": 6378,
      "notor": 6379,
      "shift": 6380,
      "aggressive": 6381,
      "stit": 6382,
      "missouri": 6383,
      "territ": 6384,
      "territory": 6385,
      "bledon": 6386,
      "unveiled": 6387,
      "traff": 6388,
      "brave": 6389,
      "cruel": 6390,
      "zimmerman": 6391,
      "projects": 6392,
      "illed": 6393,
      "arrests": 6394,
      "bristol": 6395,
      "glam": 6396,
      "oklahom": 6397,
      "blair": 6398,
      "wimbledon": 6399,
      "ipp": 6400,
      "ala": 6401,
      "excell": 6402,
      "pread": 6403,
      "battery": 6404,
      "justin": 6405,
      "teeth": 6406,
      "deport": 6407,
      "vine": 6408,
      "apply": 6409,
      "widespread": 6410,
      "subs": 6411,
      "pent": 6412,
      "capacity": 6413,
      "pace": 6414,
      "democrat": 6415,
      "salt": 6416,
      "breakfast": 6417,
      "tear": 6418,
      "commons": 6419,
      "mount": 6420,
      "clegg": 6421,
      "aron": 6422,
      "rard": 6423,
      "jun": 6424,
      "disappointed": 6425,
      "andro": 6426,
      "concept": 6427,
      "compar": 6428,
      "iana": 6429,
      "interesting": 6430,
      "hors": 6431,
      "writes": 6432,
      "sector": 6433,
      "crist": 6434,
      "taxes": 6435,
      "conclus": 6436,
      "constitut": 6437,
      "magistrates": 6438,
      "vised": 6439,
      "promise": 6440,
      "testimony": 6441,
      "mystery": 6442,
      "wounds": 6443,
      "facts": 6444,
      "successfully": 6445,
      "afraid": 6446,
      "athletes": 6447,
      "describe": 6448,
      "consequences": 6449,
      "entit": 6450,
      "hurrican": 6451,
      "amazon": 6452,
      "vs": 6453,
      "joke": 6454,
      "luke": 6455,
      "nichol": 6456,
      "carbon": 6457,
      "apology": 6458,
      "nest": 6459,
      "sean": 6460,
      "burning": 6461,
      "fault": 6462,
      "egyptian": 6463,
      "accepting": 6464,
      "63": 6465,
      "ukrainian": 6466,
      "dubbed": 6467,
      "nico": 6468,
      "honour": 6469,
      "areness": 6470,
      "commitment": 6471,
      "earning": 6472,
      "vat": 6473,
      "loving": 6474,
      "oklahoma": 6475,
      "officially": 6476,
      "awareness": 6477,
      "crucial": 6478,
      "overnight": 6479,
      "therefore": 6480,
      "itis": 6481,
      "adri": 6482,
      "closing": 6483,
      "attempting": 6484,
      "enthus": 6485,
      "grandfather": 6486,
      "fier": 6487,
      "reward": 6488,
      "enthusi": 6489,
      "possess": 6490,
      "implement": 6491,
      "demanded": 6492,
      "taught": 6493,
      "links": 6494,
      "serge": 6495,
      "ku": 6496,
      "hamas": 6497,
      "crazy": 6498,
      "sect": 6499,
      "variety": 6500,
      "extended": 6501,
      "anywhere": 6502,
      "lib": 6503,
      "defended": 6504,
      "hodg": 6505,
      "brom": 6506,
      "heath": 6507,
      "poverty": 6508,
      "riding": 6509,
      "chocolate": 6510,
      "types": 6511,
      "rab": 6512,
      "alia": 6513,
      "branch": 6514,
      "cable": 6515,
      "robbery": 6516,
      "acqu": 6517,
      "alert": 6518,
      "gab": 6519,
      "travelled": 6520,
      "opportunities": 6521,
      "mam": 6522,
      "taste": 6523,
      "demanding": 6524,
      "caution": 6525,
      "cardiff": 6526,
      "enor": 6527,
      "mitchell": 6528,
      "congressional": 6529,
      "resolution": 6530,
      "platform": 6531,
      "iguez": 6532,
      "inspector": 6533,
      "formula": 6534,
      "ugal": 6535,
      "profession": 6536,
      "clip": 6537,
      "prostit": 6538,
      "teenagers": 6539,
      "marathon": 6540,
      "hawa": 6541,
      "alab": 6542,
      "exclusive": 6543,
      "mohammed": 6544,
      "mul": 6545,
      "edwards": 6546,
      "loves": 6547,
      "petition": 6548,
      "911": 6549,
      "consumer": 6550,
      "95": 6551,
      "motion": 6552,
      "studio": 6553,
      "pier": 6554,
      "haul": 6555,
      "conver": 6556,
      "alling": 6557,
      "twi": 6558,
      "davies": 6559,
      "vation": 6560,
      "strip": 6561,
      "gt": 6562,
      "attending": 6563,
      "checks": 6564,
      "headquarters": 6565,
      "approval": 6566,
      "($": 6567,
      "libr": 6568,
      "pleased": 6569,
      "walks": 6570,
      "registered": 6571,
      "ita": 6572,
      "contained": 6573,
      "issa": 6574,
      "72": 6575,
      "accompl": 6576,
      "gray": 6577,
      "spin": 6578,
      "offence": 6579,
      "loyal": 6580,
      "agan": 6581,
      "phia": 6582,
      "promote": 6583,
      "tape": 6584,
      "delighted": 6585,
      "demands": 6586,
      "crying": 6587,
      "temperature": 6588,
      "gerrard": 6589,
      "priority": 6590,
      "cats": 6591,
      "aer": 6592,
      "rodriguez": 6593,
      "celt": 6594,
      "nan": 6595,
      "stewart": 6596,
      "comedy": 6597,
      "typically": 6598,
      "carter": 6599,
      "unlike": 6600,
      "investigations": 6601,
      "hired": 6602,
      "gos": 6603,
      "bruce": 6604,
      "affiliate": 6605,
      "hin": 6606,
      "script": 6607,
      "roc": 6608,
      "keys": 6609,
      "puts": 6610,
      "inois": 6611,
      "existing": 6612,
      "cultural": 6613,
      "diamond": 6614,
      "toll": 6615,
      "bors": 6616,
      "jeremy": 6617,
      "martine": 6618,
      "edition": 6619,
      "lisa": 6620,
      "orous": 6621,
      "intend": 6622,
      "voting": 6623,
      "philadel": 6624,
      "nast": 6625,
      "dial": 6626,
      "02": 6627,
      "divers": 6628,
      "punishment": 6629,
      "bart": 6630,
      "munich": 6631,
      "disney": 6632,
      "formal": 6633,
      "aming": 6634,
      "teaching": 6635,
      "gained": 6636,
      "feeding": 6637,
      "shoo": 6638,
      "infect": 6639,
      "invent": 6640,
      "execution": 6641,
      "hits": 6642,
      "philadelphia": 6643,
      "hend": 6644,
      "mere": 6645,
      "winners": 6646,
      "opponents": 6647,
      "portra": 6648,
      "deals": 6649,
      "illinois": 6650,
      "locations": 6651,
      "eleph": 6652,
      "belg": 6653,
      "courage": 6654,
      "rell": 6655,
      "60s": 6656,
      "cbs": 6657,
      "funny": 6658,
      "appointed": 6659,
      "athle": 6660,
      "roger": 6661,
      "amanda": 6662,
      "burns": 6663,
      "drawing": 6664,
      "movies": 6665,
      "liqu": 6666,
      "tourist": 6667,
      "wet": 6668,
      "drone": 6669,
      "basketball": 6670,
      "restaurants": 6671,
      "referring": 6672,
      "osborne": 6673,
      "aboard": 6674,
      "select": 6675,
      "hanging": 6676,
      "trophy": 6677,
      "commentary": 6678,
      "interviewed": 6679,
      "generally": 6680,
      "ardo": 6681,
      "killings": 6682,
      "regarding": 6683,
      "bast": 6684,
      "governments": 6685,
      "gear": 6686,
      "abilities": 6687,
      "satellite": 6688,
      "usive": 6689,
      "russell": 6690,
      "genet": 6691,
      "missions": 6692,
      "bean": 6693,
      "extensive": 6694,
      "twin": 6695,
      "galax": 6696,
      "collected": 6697,
      "burned": 6698,
      "gur": 6699,
      "probe": 6700,
      "icut": 6701,
      "bou": 6702,
      "paramed": 6703,
      "arct": 6704,
      "cancell": 6705,
      "mario": 6706,
      "sie": 6707,
      "coln": 6708,
      "smug": 6709,
      "jurors": 6710,
      "lod": 6711,
      "clients": 6712,
      "mechan": 6713,
      "chant": 6714,
      "fet": 6715,
      "positions": 6716,
      "icy": 6717,
      "ipad": 6718,
      "locals": 6719,
      "taxi": 6720,
      "fied": 6721,
      "cliff": 6722,
      "contrast": 6723,
      "globe": 6724,
      "kiss": 6725,
      "fires": 6726,
      "convin": 6727,
      "bless": 6728,
      "aust": 6729,
      "ulty": 6730,
      "producer": 6731,
      "69": 6732,
      "zero": 6733,
      "lincoln": 6734,
      "settlement": 6735,
      "skir": 6736,
      "brooklyn": 6737,
      "err": 6738,
      "crowds": 6739,
      "papers": 6740,
      "delivery": 6741,
      "illust": 6742,
      "smil": 6743,
      "chicken": 6744,
      "combined": 6745,
      "volunteers": 6746,
      "industrial": 6747,
      "celebration": 6748,
      "featuring": 6749,
      "promin": 6750,
      "improved": 6751,
      "bern": 6752,
      "bagh": 6753,
      "mole": 6754,
      "oft": 6755,
      "brilliant": 6756,
      "sne": 6757,
      "01": 6758,
      "applied": 6759,
      "gp": 6760,
      "boom": 6761,
      "aven": 6762,
      "horses": 6763,
      "goods": 6764,
      "aler": 6765,
      "horror": 6766,
      "mixed": 6767,
      "sop": 6768,
      "thie": 6769,
      "enormous": 6770,
      "theory": 6771,
      "convinced": 6772,
      "plate": 6773,
      "ili": 6774,
      "connecticut": 6775,
      "sits": 6776,
      "lash": 6777,
      "1997": 6778,
      "celebrated": 6779,
      "celtic": 6780,
      "sier": 6781,
      "78": 6782,
      "recover": 6783,
      "advertising": 6784,
      "impressed": 6785,
      "crews": 6786,
      "ferr": 6787,
      "gol": 6788,
      "homeless": 6789,
      "rog": 6790,
      "liance": 6791,
      "adams": 6792,
      "creative": 6793,
      "anybody": 6794,
      "cedes": 6795,
      "transportation": 6796,
      "spokesperson": 6797,
      "martinez": 6798,
      "chase": 6799,
      "enn": 6800,
      "belgium": 6801,
      "shark": 6802,
      "firing": 6803,
      "earn": 6804,
      "protected": 6805,
      "neighbors": 6806,
      "seed": 6807,
      "infected": 6808,
      "defic": 6809,
      "acknowledged": 6810,
      "exciting": 6811,
      "dick": 6812,
      "regret": 6813,
      "booked": 6814,
      "illy": 6815,
      "fisher": 6816,
      "criminals": 6817,
      "gross": 6818,
      "hotels": 6819,
      "bombs": 6820,
      "120": 6821,
      "ua": 6822,
      "seattle": 6823,
      "touched": 6824,
      "posite": 6825,
      "afterwards": 6826,
      "taxpayers": 6827,
      "suspicious": 6828,
      "kingdom": 6829,
      "lb": 6830,
      "effectively": 6831,
      "checked": 6832,
      "civilian": 6833,
      "dew": 6834,
      "sink": 6835,
      "succeed": 6836,
      "nigel": 6837,
      "sounds": 6838,
      "schol": 6839,
      "ppi": 6840,
      "mccain": 6841,
      "package": 6842,
      "hiding": 6843,
      "chamber": 6844,
      "judic": 6845,
      "entry": 6846,
      "accompan": 6847,
      "traveling": 6848,
      "philipp": 6849,
      "barely": 6850,
      "accompanied": 6851,
      "desire": 6852,
      "***": 6853,
      "deem": 6854,
      "teens": 6855,
      "clock": 6856,
      "alabama": 6857,
      "juni": 6858,
      "lla": 6859,
      "transform": 6860,
      "application": 6861,
      "pts": 6862,
      "isle": 6863,
      "closure": 6864,
      "cort": 6865,
      "portugal": 6866,
      "supplies": 6867,
      "forcing": 6868,
      "hook": 6869,
      "apps": 6870,
      "constitution": 6871,
      "renew": 6872,
      "youngest": 6873,
      "aside": 6874,
      "breathing": 6875,
      "thick": 6876,
      "nit": 6877,
      "coord": 6878,
      "ups": 6879,
      "iley": 6880,
      "athy": 6881,
      "genu": 6882,
      "arrange": 6883,
      "fortune": 6884,
      "speculation": 6885,
      "meals": 6886,
      "attached": 6887,
      "ien": 6888,
      "flooding": 6889,
      "foods": 6890,
      "visits": 6891,
      "classes": 6892,
      "observ": 6893,
      "utah": 6894,
      "gel": 6895,
      "liga": 6896,
      "therapy": 6897,
      "constant": 6898,
      "artists": 6899,
      "discrim": 6900,
      "genuine": 6901,
      "nurs": 6902,
      "titles": 6903,
      "stim": 6904,
      "tow": 6905,
      "spray": 6906,
      "wealthy": 6907,
      "remarkable": 6908,
      "screaming": 6909,
      "hr": 6910,
      "gunman": 6911,
      "allies": 6912,
      "desert": 6913,
      "bacter": 6914,
      "legit": 6915,
      "manufactur": 6916,
      "trium": 6917,
      "balot": 6918,
      "suits": 6919,
      "scor": 6920,
      "stronger": 6921,
      "stroke": 6922,
      "rec": 6923,
      "degre": 6924,
      "hiv": 6925,
      "shame": 6926,
      "guess": 6927,
      "prepar": 6928,
      "representatives": 6929,
      "celebrating": 6930,
      "spectac": 6931,
      "substit": 6932,
      "condemned": 6933,
      "vous": 6934,
      "bosses": 6935,
      "gill": 6936,
      "collis": 6937,
      "urban": 6938,
      "hodgson": 6939,
      "cheek": 6940,
      "praised": 6941,
      "memories": 6942,
      "experiences": 6943,
      "eva": 6944,
      "requires": 6945,
      "ramp": 6946,
      "counsel": 6947,
      "lawmakers": 6948,
      "ule": 6949,
      "bones": 6950,
      "balotelli": 6951,
      "indicated": 6952,
      "occasions": 6953,
      "sli": 6954,
      "switzer": 6955,
      "degrees": 6956,
      "confront": 6957,
      "pressing": 6958,
      "stig": 6959,
      "technical": 6960,
      "partnership": 6961,
      "values": 6962,
      "funded": 6963,
      "spons": 6964,
      "fields": 6965,
      "marketing": 6966,
      "striking": 6967,
      "erie": 6968,
      "throwing": 6969,
      "dean": 6970,
      "attracted": 6971,
      "inappropriate": 6972,
      "glasgow": 6973,
      "boxing": 6974,
      "accusations": 6975,
      "hopefully": 6976,
      "charlot": 6977,
      "hosts": 6978,
      "diplomatic": 6979,
      "triumph": 6980,
      "ateful": 6981,
      "switzerland": 6982,
      "slim": 6983,
      "relationships": 6984,
      "iow": 6985,
      "liked": 6986,
      "prop": 6987,
      "westminster": 6988,
      "detailed": 6989,
      "ffield": 6990,
      "ethnic": 6991,
      "filming": 6992,
      "baseball": 6993,
      "qpr": 6994,
      "moral": 6995,
      "jesus": 6996,
      "novel": 6997,
      "encouraged": 6998,
      "thur": 6999,
      "household": 7000,
      "jar": 7001,
      "crossing": 7002,
      "advised": 7003,
      "hurricane": 7004,
      "landsc": 7005,
      "glasses": 7006,
      "entering": 7007,
      "emails": 7008,
      "tiger": 7009,
      "vard": 7010,
      "races": 7011,
      "minority": 7012,
      "felon": 7013,
      "1980s": 7014,
      "susan": 7015,
      "duncan": 7016,
      "aviation": 7017,
      "slowly": 7018,
      "baghdad": 7019,
      "knight": 7020,
      "meetings": 7021,
      "arts": 7022,
      "heritage": 7023,
      "endum": 7024,
      "howard": 7025,
      "ette": 7026,
      "representative": 7027,
      "represents": 7028,
      "fishing": 7029,
      "yang": 7030,
      "backs": 7031,
      "searched": 7032,
      "shield": 7033,
      "leban": 7034,
      "graduate": 7035,
      "ora": 7036,
      "deny": 7037,
      "sized": 7038,
      "bitter": 7039,
      "fried": 7040,
      "shelter": 7041,
      "ordeal": 7042,
      "religion": 7043,
      "attorneys": 7044,
      "downing": 7045,
      "cuba": 7046,
      "lamp": 7047,
      "stuart": 7048,
      "appeals": 7049,
      "compound": 7050,
      "referendum": 7051,
      "organizations": 7052,
      "snowden": 7053,
      "griff": 7054,
      "tensions": 7055,
      "oldest": 7056,
      "thail": 7057,
      "apol": 7058,
      "peak": 7059,
      "collins": 7060,
      "forever": 7061,
      "sham": 7062,
      "sensitive": 7063,
      "render": 7064,
      "belt": 7065,
      "thailand": 7066,
      "astro": 7067,
      "aa": 7068,
      "ridic": 7069,
      "vant": 7070,
      "onso": 7071,
      "legitim": 7072,
      "garcia": 7073,
      "cornwall": 7074,
      "cited": 7075,
      "uncle": 7076,
      "wolf": 7077,
      "maid": 7078,
      "dubai": 7079,
      "negotiations": 7080,
      "debris": 7081,
      "pets": 7082,
      "opposed": 7083,
      "sail": 7084,
      "interviews": 7085,
      "actors": 7086,
      "craw": 7087,
      "pron": 7088,
      "suggesting": 7089,
      "ost": 7090,
      "competitive": 7091,
      "towns": 7092,
      "pic": 7093,
      "invas": 7094,
      "notting": 7095,
      "61": 7096,
      "blocked": 7097,
      "cca": 7098,
      "contains": 7099,
      "wars": 7100,
      "aaron": 7101,
      "bride": 7102,
      "1970s": 7103,
      "syndrome": 7104,
      "lean": 7105,
      "stamp": 7106,
      "manner": 7107,
      "soccer": 7108,
      "conservatives": 7109,
      "iowa": 7110,
      "stations": 7111,
      "counted": 7112,
      "grabbed": 7113,
      "shine": 7114,
      "bread": 7115,
      "comprom": 7116,
      "colleague": 7117,
      "icks": 7118,
      "monitoring": 7119,
      "mirror": 7120,
      "chez": 7121,
      "plum": 7122,
      "plun": 7123,
      "represented": 7124,
      "scientific": 7125,
      "pipe": 7126,
      "resulted": 7127,
      "inating": 7128,
      "conven": 7129,
      "katie": 7130,
      "1990s": 7131,
      "frozen": 7132,
      "sheffield": 7133,
      "pilots": 7134,
      "tracks": 7135,
      "assaulted": 7136,
      "inn": 7137,
      "cheap": 7138,
      "reforms": 7139,
      "electricity": 7140,
      "personally": 7141,
      "obvious": 7142,
      "fasc": 7143,
      "esa": 7144,
      "foren": 7145,
      "anticip": 7146,
      "collapse": 7147,
      "medication": 7148,
      "edinburgh": 7149,
      "gut": 7150,
      "constitutional": 7151,
      "curren": 7152,
      "activist": 7153,
      "containing": 7154,
      "predicted": 7155,
      "diabet": 7156,
      "humanitarian": 7157,
      "thed": 7158,
      "usal": 7159,
      "speaks": 7160,
      "branded": 7161,
      "igned": 7162,
      "glad": 7163,
      "detention": 7164,
      "escal": 7165,
      "mend": 7166,
      "heim": 7167,
      "estimates": 7168,
      "nurses": 7169,
      "peaceful": 7170,
      "lone": 7171,
      "portray": 7172,
      "tweets": 7173,
      "stole": 7174,
      "alle": 7175,
      "atlet": 7176,
      "disabled": 7177,
      "fernand": 7178,
      "outfit": 7179,
      "esh": 7180,
      "mood": 7181,
      "furious": 7182,
      "mountains": 7183,
      "juan": 7184,
      "beckham": 7185,
      "chile": 7186,
      "advanced": 7187,
      "blaze": 7188,
      "transp": 7189,
      "finds": 7190,
      "settled": 7191,
      "trains": 7192,
      "mcdonald": 7193,
      "keeps": 7194,
      "honey": 7195,
      "cycling": 7196,
      "syn": 7197,
      "materials": 7198,
      "disgust": 7199,
      "mercedes": 7200,
      "networks": 7201,
      "procedures": 7202,
      "harder": 7203,
      "1996": 7204,
      "politan": 7205,
      "sudan": 7206,
      "mete": 7207,
      "cuit": 7208,
      "divid": 7209,
      "toilet": 7210,
      "communication": 7211,
      "vowed": 7212,
      "persu": 7213,
      "spectacular": 7214,
      "bears": 7215,
      "strongly": 7216,
      "describing": 7217,
      "pour": 7218,
      "flames": 7219,
      "cert": 7220,
      "icing": 7221,
      "swiss": 7222,
      "mug": 7223,
      "kenya": 7224,
      "paint": 7225,
      "handling": 7226,
      "answers": 7227,
      "brings": 7228,
      "samsung": 7229,
      "approxim": 7230,
      "migrants": 7231,
      "mund": 7232,
      "cler": 7233,
      "shr": 7234,
      "homeland": 7235,
      "powered": 7236,
      "twins": 7237,
      "stretch": 7238,
      "1994": 7239,
      "xon": 7240,
      "faster": 7241,
      "importance": 7242,
      "castro": 7243,
      "yu": 7244,
      "outcome": 7245,
      "songs": 7246,
      "stones": 7247,
      "roughly": 7248,
      "nelson": 7249,
      "expecting": 7250,
      "switch": 7251,
      "mone": 7252,
      "managing": 7253,
      "statistics": 7254,
      "opposite": 7255,
      "exhibition": 7256,
      "stages": 7257,
      "mare": 7258,
      "confron": 7259,
      "idi": 7260,
      "significantly": 7261,
      "amend": 7262,
      "phillips": 7263,
      "assass": 7264,
      "atletico": 7265,
      "acks": 7266,
      "swift": 7267,
      "directed": 7268,
      "mble": 7269,
      "polls": 7270,
      "trips": 7271,
      "refle": 7272,
      "substant": 7273,
      "abortion": 7274,
      "specifically": 7275,
      "offices": 7276,
      "sustained": 7277,
      "entitled": 7278,
      "missile": 7279,
      "requests": 7280,
      "bold": 7281,
      "cake": 7282,
      "wash": 7283,
      "units": 7284,
      "optim": 7285,
      "wool": 7286,
      "error": 7287,
      "revenue": 7288,
      "discussion": 7289,
      "dressing": 7290,
      "junior": 7291,
      "computers": 7292,
      "survivors": 7293,
      "pd": 7294,
      "expo": 7295,
      "ologists": 7296,
      "arena": 7297,
      "dock": 7298,
      "knock": 7299,
      "sanchez": 7300,
      "whist": 7301,
      "warren": 7302,
      "personality": 7303,
      "reid": 7304,
      "everywhere": 7305,
      "supermarket": 7306,
      "kyo": 7307,
      "purchase": 7308,
      "emir": 7309,
      "pride": 7310,
      "regulations": 7311,
      "entr": 7312,
      "proto": 7313,
      "underground": 7314,
      "argue": 7315,
      "chen": 7316,
      "discussed": 7317,
      "storms": 7318,
      "retirement": 7319,
      "enda": 7320,
      "toler": 7321,
      "pens": 7322,
      "finance": 7323,
      "stev": 7324,
      "armstrong": 7325,
      "maryland": 7326,
      "pages": 7327,
      "proceedings": 7328,
      "itv": 7329,
      "welsh": 7330,
      "tons": 7331,
      "analysts": 7332,
      "witnessed": 7333,
      ".-": 7334,
      "maj": 7335,
      "margaret": 7336,
      "wage": 7337,
      "buck": 7338,
      "bene": 7339,
      "representing": 7340,
      "hearts": 7341,
      "soph": 7342,
      "aya": 7343,
      "arabia": 7344,
      "ighth": 7345,
      "mandela": 7346,
      "dow": 7347,
      "discrimination": 7348,
      "icate": 7349,
      "pulling": 7350,
      "?’": 7351,
      "corporate": 7352,
      "reads": 7353,
      "greek": 7354,
      "reception": 7355,
      "barbara": 7356,
      "relax": 7357,
      ".)": 7358,
      "factors": 7359,
      "managers": 7360,
      "survival": 7361,
      "yach": 7362,
      "tired": 7363,
      "torture": 7364,
      "elim": 7365,
      "5million": 7366,
      "boun": 7367,
      "recovering": 7368,
      "pole": 7369,
      "delayed": 7370,
      "inate": 7371,
      "treating": 7372,
      "adviser": 7373,
      "painful": 7374,
      "endanger": 7375,
      "sgt": 7376,
      "pere": 7377,
      "transplant": 7378,
      "boot": 7379,
      "microsoft": 7380,
      "bee": 7381,
      "helen": 7382,
      "resigned": 7383,
      "equival": 7384,
      "studying": 7385,
      "hammer": 7386,
      "widow": 7387,
      "tas": 7388,
      "odds": 7389,
      "uniform": 7390,
      "charlotte": 7391,
      "cyber": 7392,
      "berlin": 7393,
      "transferred": 7394,
      "spurs": 7395,
      "bullying": 7396,
      "lessons": 7397,
      "holidays": 7398,
      "fract": 7399,
      "warnings": 7400,
      "discover": 7401,
      "smashed": 7402,
      "objects": 7403,
      "seal": 7404,
      "bis": 7405,
      "stealing": 7406,
      "begun": 7407,
      "centers": 7408,
      "rachel": 7409,
      "yo": 7410,
      "exit": 7411,
      "register": 7412,
      "mitt": 7413,
      "garage": 7414,
      "hibit": 7415,
      "troit": 7416,
      "selection": 7417,
      "constantly": 7418,
      "phen": 7419,
      "popularity": 7420,
      "orbit": 7421,
      "devon": 7422,
      "piz": 7423,
      "citing": 7424,
      "atically": 7425,
      "aspect": 7426,
      "prevention": 7427,
      "concert": 7428,
      "elite": 7429,
      "typical": 7430,
      "operate": 7431,
      "eggs": 7432,
      "rein": 7433,
      "cine": 7434,
      "detroit": 7435,
      "defensive": 7436,
      "electronic": 7437,
      "kis": 7438,
      "demonstrators": 7439,
      "emotion": 7440,
      "footballer": 7441,
      "clarke": 7442,
      "aj": 7443,
      "mia": 7444,
      "oreg": 7445,
      "trace": 7446,
      "cheese": 7447,
      "library": 7448,
      "partial": 7449,
      "correspond": 7450,
      "utes": 7451,
      "psychiat": 7452,
      "kh": 7453,
      "1995": 7454,
      "urgent": 7455,
      "boats": 7456,
      "attered": 7457,
      "amounts": 7458,
      "boots": 7459,
      "sadd": 7460,
      "trading": 7461,
      "silence": 7462,
      "actual": 7463,
      "ato": 7464,
      "traveled": 7465,
      "businessman": 7466,
      "alarm": 7467,
      "shoppers": 7468,
      "donations": 7469,
      "obl": 7470,
      "riots": 7471,
      "cheer": 7472,
      "lifetime": 7473,
      "highlight": 7474,
      "qualified": 7475,
      "malaysia": 7476,
      "earthquake": 7477,
      "pentagon": 7478,
      "tourism": 7479,
      "imprison": 7480,
      "approximately": 7481,
      "placing": 7482,
      "ballo": 7483,
      "restrictions": 7484,
      "nights": 7485,
      "jong": 7486,
      "88": 7487,
      "inmates": 7488,
      "lovely": 7489,
      "yer": 7490,
      "throat": 7491,
      "gallery": 7492,
      "galaxy": 7493,
      "viral": 7494,
      "smartphone": 7495,
      "grateful": 7496,
      "nazi": 7497,
      "oregon": 7498,
      "bailey": 7499,
      "griev": 7500,
      "issi": 7501,
      "barclay": 7502,
      "autum": 7503,
      "achieved": 7504,
      "recess": 7505,
      "poland": 7506,
      "repair": 7507,
      "rocks": 7508,
      "probation": 7509,
      "unfair": 7510,
      "backing": 7511,
      "baker": 7512,
      "irs": 7513,
      "targeting": 7514,
      "dang": 7515,
      "equivalent": 7516,
      "tha": 7517,
      "frequently": 7518,
      "keith": 7519,
      "legacy": 7520,
      "investors": 7521,
      "noise": 7522,
      "holes": 7523,
      "tsar": 7524,
      "cloud": 7525,
      "surrey": 7526,
      "rounds": 7527,
      "seasons": 7528,
      "nottingham": 7529,
      "unemployment": 7530,
      "pion": 7531,
      "tin": 7532,
      "dawn": 7533,
      "picking": 7534,
      "cano": 7535,
      "painted": 7536,
      "militant": 7537,
      "kie": 7538,
      "extent": 7539,
      "biden": 7540,
      "itz": 7541,
      "headlines": 7542,
      "magic": 7543,
      "nervous": 7544,
      "ras": 7545,
      "obser": 7546,
      "clashes": 7547,
      "absence": 7548,
      "enemy": 7549,
      "oth": 7550,
      "midlands": 7551,
      "dates": 7552,
      "flown": 7553,
      "infra": 7554,
      "lloy": 7555,
      "physically": 7556,
      "ashing": 7557,
      "pep": 7558,
      "hawaii": 7559,
      "payment": 7560,
      "mature": 7561,
      "mississi": 7562,
      "viewed": 7563,
      "crete": 7564,
      "steel": 7565,
      "engineer": 7566,
      "ipped": 7567,
      "principal": 7568,
      "whil": 7569,
      "consistent": 7570,
      "consultant": 7571,
      "fitted": 7572,
      "uations": 7573,
      "rarely": 7574,
      "xi": 7575,
      "tennes": 7576,
      "beneath": 7577,
      "gory": 7578,
      "chaos": 7579,
      "........": 7580,
      "ambit": 7581,
      "bottles": 7582,
      "ourselves": 7583,
      "alo": 7584,
      "imposed": 7585,
      "whilst": 7586,
      "nationwide": 7587,
      "lawrence": 7588,
      "cass": 7589,
      "folk": 7590,
      "louisiana": 7591,
      "mainly": 7592,
      "oma": 7593,
      "websites": 7594,
      "cyc": 7595,
      "avenue": 7596,
      "ets": 7597,
      "krist": 7598,
      "ppers": 7599,
      "conced": 7600,
      "attitude": 7601,
      "roma": 7602,
      "caster": 7603,
      "shake": 7604,
      "addressed": 7605,
      "austin": 7606,
      "minnes": 7607,
      "oxy": 7608,
      "ende": 7609,
      "ography": 7610,
      "mississippi": 7611,
      "circuit": 7612,
      "kidnapping": 7613,
      "somewhere": 7614,
      "safely": 7615,
      "stunned": 7616,
      "refugees": 7617,
      "reh": 7618,
      "qc": 7619,
      "coat": 7620,
      "islamist": 7621,
      "obam": 7622,
      "hazard": 7623,
      "latin": 7624,
      "smell": 7625,
      "fright": 7626,
      "jacket": 7627,
      "spar": 7628,
      "qatar": 7629,
      "collision": 7630,
      "reference": 7631,
      "emily": 7632,
      "salary": 7633,
      "britons": 7634,
      "tout": 7635,
      "kansas": 7636,
      "tab": 7637,
      "recon": 7638,
      "lowest": 7639,
      "sting": 7640,
      "dreams": 7641,
      "metropolitan": 7642,
      "lope": 7643,
      "crossed": 7644,
      "fundam": 7645,
      "odd": 7646,
      "welcomed": 7647,
      "pad": 7648,
      "ultimate": 7649,
      "oliver": 7650,
      "!!": 7651,
      "dispatch": 7652,
      "surgeon": 7653,
      "minnesota": 7654,
      "tornado": 7655,
      "urugu": 7656,
      "hunter": 7657,
      "sweden": 7658,
      "fli": 7659,
      "oak": 7660,
      "destination": 7661,
      "paramedics": 7662,
      "designs": 7663,
      "oz": 7664,
      "uruguay": 7665,
      "guardian": 7666,
      "rear": 7667,
      "feelings": 7668,
      "twent": 7669,
      "photographed": 7670,
      "participants": 7671,
      "deemed": 7672,
      "substantial": 7673,
      "igation": 7674,
      "telephone": 7675,
      "colombia": 7676,
      "shif": 7677,
      "hoo": 7678,
      "obes": 7679,
      "federer": 7680,
      "apo": 7681,
      "criticized": 7682,
      "autumn": 7683,
      "dele": 7684,
      "barry": 7685,
      "skull": 7686,
      "offenders": 7687,
      "lover": 7688,
      "leaked": 7689,
      "vention": 7690,
      "deployed": 7691,
      "breaks": 7692,
      "aggrav": 7693,
      "aftermath": 7694,
      "valuable": 7695,
      "corporation": 7696,
      "isan": 7697,
      "alaska": 7698,
      "excellent": 7699,
      "redi": 7700,
      "cousin": 7701,
      "hosted": 7702,
      "mentioned": 7703,
      "treasury": 7704,
      "encer": 7705,
      "anya": 7706,
      "vigil": 7707,
      "explor": 7708,
      "meteor": 7709,
      "gm": 7710,
      "jection": 7711,
      "amo": 7712,
      "cannab": 7713,
      "mcil": 7714,
      "pure": 7715,
      "austri": 7716,
      "gle": 7717,
      "bucking": 7718,
      "toys": 7719,
      "fert": 7720,
      "butter": 7721,
      "eval": 7722,
      "echo": 7723,
      "rud": 7724,
      "gb": 7725,
      "cafe": 7726,
      "priest": 7727,
      "resem": 7728,
      "spur": 7729,
      "brush": 7730,
      "parade": 7731,
      "politician": 7732,
      "recommended": 7733,
      "tennessee": 7734,
      "fits": 7735,
      "indonesia": 7736,
      "somer": 7737,
      "antonio": 7738,
      "brig": 7739,
      "perfectly": 7740,
      "obesity": 7741,
      "controls": 7742,
      "pistor": 7743,
      "somalia": 7744,
      "fierce": 7745,
      "wrapped": 7746,
      "murphy": 7747,
      "seventh": 7748,
      "71": 7749,
      "escort": 7750,
      "mistakes": 7751,
      "raph": 7752,
      "utter": 7753,
      "llers": 7754,
      "toxic": 7755,
      "ingredi": 7756,
      "realized": 7757,
      "parked": 7758,
      "bran": 7759,
      "nether": 7760,
      "aga": 7761,
      "spy": 7762,
      "mah": 7763,
      "returns": 7764,
      "overwhelming": 7765,
      "infrastructure": 7766,
      "battling": 7767,
      "combination": 7768,
      "nba": 7769,
      "nev": 7770,
      "comparison": 7771,
      "crush": 7772,
      "darren": 7773,
      "roles": 7774,
      "licence": 7775,
      "license": 7776,
      "executed": 7777,
      "scul": 7778,
      "vlad": 7779,
      "residence": 7780,
      "savile": 7781,
      "ucky": 7782,
      "arctic": 7783,
      "swing": 7784,
      "stur": 7785,
      "reasonable": 7786,
      "singing": 7787,
      "tokyo": 7788,
      "venez": 7789,
      "recruit": 7790,
      "sacked": 7791,
      "prix": 7792,
      "desc": 7793,
      "appointment": 7794,
      "pistorius": 7795,
      "youngsters": 7796,
      "50s": 7797,
      "organised": 7798,
      "sue": 7799,
      "brendan": 7800,
      "entrance": 7801,
      "confessed": 7802,
      "idency": 7803,
      "studied": 7804,
      "tools": 7805,
      "initiative": 7806,
      "diabetes": 7807,
      "decline": 7808,
      "louise": 7809,
      "hacking": 7810,
      "corp": 7811,
      "convention": 7812,
      "omen": 7813,
      "stup": 7814,
      "tub": 7815,
      "challenging": 7816,
      "illegally": 7817,
      "woke": 7818,
      "intervention": 7819,
      "thatcher": 7820,
      "lions": 7821,
      "heroes": 7822,
      "encouraging": 7823,
      "tips": 7824,
      "shirts": 7825,
      "gathering": 7826,
      "category": 7827,
      "practices": 7828,
      "regions": 7829,
      "spots": 7830,
      "uct": 7831,
      "solic": 7832,
      "sweep": 7833,
      "performances": 7834,
      "sony": 7835,
      "questioning": 7836,
      "marie": 7837,
      "loose": 7838,
      "profits": 7839,
      "pelle": 7840,
      "destruction": 7841,
      "uncertain": 7842,
      "sures": 7843,
      "boxes": 7844,
      "burnley": 7845,
      "prominent": 7846,
      "drum": 7847,
      "parks": 7848,
      "porn": 7849,
      "hub": 7850,
      "fu": 7851,
      "nels": 7852,
      "protecting": 7853,
      "mm": 7854,
      "nail": 7855,
      "guidelines": 7856,
      "carefully": 7857,
      "departure": 7858,
      "airports": 7859,
      "izes": 7860,
      "bry": 7861,
      "asylum": 7862,
      "phas": 7863,
      "holy": 7864,
      "passport": 7865,
      "mcilroy": 7866,
      "cannabis": 7867,
      "buckingham": 7868,
      "xture": 7869,
      "attr": 7870,
      "pending": 7871,
      "detain": 7872,
      "pless": 7873,
      "cuff": 7874,
      "nity": 7875,
      "answered": 7876,
      "kidney": 7877,
      "pra": 7878,
      "admitting": 7879,
      "manslaughter": 7880,
      "scra": 7881,
      "trafficking": 7882,
      "quoted": 7883,
      "warn": 7884,
      "exposure": 7885,
      "1992": 7886,
      "ignored": 7887,
      "sierra": 7888,
      "choices": 7889,
      "assets": 7890,
      "egg": 7891,
      "polar": 7892,
      "column": 7893,
      "dropping": 7894,
      "powell": 7895,
      "comedian": 7896,
      "android": 7897,
      "lers": 7898,
      "moyes": 7899,
      "remembered": 7900,
      "unexpected": 7901,
      "79": 7902,
      "borders": 7903,
      "selected": 7904,
      "douglas": 7905,
      "donated": 7906,
      "pronounced": 7907,
      "youngster": 7908,
      "hafi": 7909,
      "bug": 7910,
      "transl": 7911,
      "bloody": 7912,
      "gardens": 7913,
      "engineering": 7914,
      "aired": 7915,
      "1993": 7916,
      "harassment": 7917,
      "murders": 7918,
      "troubled": 7919,
      "73": 7920,
      "entrep": 7921,
      "beng": 7922,
      "ahmed": 7923,
      "forensic": 7924,
      "separated": 7925,
      "muscle": 7926,
      "root": 7927,
      "soil": 7928,
      "wheelchair": 7929,
      "74": 7930,
      "outstanding": 7931,
      "involves": 7932,
      "treatments": 7933,
      "barclays": 7934,
      "carn": 7935,
      "isation": 7936,
      "soviet": 7937,
      "responding": 7938,
      "adequ": 7939,
      "gadhafi": 7940,
      "bite": 7941,
      "aux": 7942,
      "gib": 7943,
      "kings": 7944,
      "ranging": 7945,
      "entreprene": 7946,
      "increases": 7947,
      "deserve": 7948,
      "diana": 7949,
      "imm": 7950,
      "ller": 7951,
      "wives": 7952,
      "sentences": 7953,
      "oke": 7954,
      "knox": 7955,
      "upcoming": 7956,
      "holmes": 7957,
      "eved": 7958,
      "cleve": 7959,
      "reign": 7960,
      "physic": 7961,
      "spencer": 7962,
      "aims": 7963,
      "udes": 7964,
      "kyle": 7965,
      "nik": 7966,
      "rd": 7967,
      "depict": 7968,
      "valent": 7969,
      "midnight": 7970,
      "label": 7971,
      "sussex": 7972,
      "reserved": 7973,
      "mck": 7974,
      "contam": 7975,
      "ighter": 7976,
      "ske": 7977,
      "uters": 7978,
      "rebecca": 7979,
      "theatre": 7980,
      "jav": 7981,
      "stam": 7982,
      "forth": 7983,
      "memo": 7984,
      "rover": 7985,
      "collabor": 7986,
      "engagement": 7987,
      "astronaut": 7988,
      "netherlands": 7989,
      "cad": 7990,
      "sued": 7991,
      "wig": 7992,
      "bradley": 7993,
      "raged": 7994,
      "pum": 7995,
      "ranked": 7996,
      "toddler": 7997,
      "anfield": 7998,
      "genetic": 7999,
      "slip": 8000,
      "abul": 8001,
      "realise": 8002,
      "emphas": 8003,
      "dot": 8004,
      "\".": 8005,
      "dod": 8006,
      "jewell": 8007,
      "dragged": 8008,
      "commonwealth": 8009,
      "proposals": 8010,
      "apore": 8011,
      "venue": 8012,
      "males": 8013,
      "letting": 8014,
      "giants": 8015,
      "passes": 8016,
      "theme": 8017,
      "singapore": 8018,
      "paed": 8019,
      "julie": 8020,
      "lbs": 8021,
      "strand": 8022,
      "defendants": 8023,
      "libyan": 8024,
      "purchased": 8025,
      "dolph": 8026,
      "dominated": 8027,
      "secured": 8028,
      "gentle": 8029,
      "blings": 8030,
      "sels": 8031,
      "kentucky": 8032,
      "cleveland": 8033,
      "notorious": 8034,
      "weighed": 8035,
      "hannah": 8036,
      "protective": 8037,
      "leans": 8038,
      "obtain": 8039,
      "carries": 8040,
      "denver": 8041,
      "bever": 8042,
      "gren": 8043,
      "sportsmail": 8044,
      "winger": 8045,
      "radar": 8046,
      "assessment": 8047,
      "blocks": 8048,
      "explan": 8049,
      "corps": 8050,
      "farmers": 8051,
      "literally": 8052,
      "stron": 8053,
      "regardless": 8054,
      "lessly": 8055,
      "orient": 8056,
      "brands": 8057,
      "calcul": 8058,
      "simpson": 8059,
      "tesco": 8060,
      "instance": 8061,
      "kas": 8062,
      "musical": 8063,
      "diagnosis": 8064,
      "tories": 8065,
      "extend": 8066,
      "indiana": 8067,
      "beloved": 8068,
      "championships": 8069,
      "athlete": 8070,
      "smiling": 8071,
      "boeing": 8072,
      "76": 8073,
      "runner": 8074,
      "reserve": 8075,
      "www": 8076,
      "unacceptable": 8077,
      "opponent": 8078,
      "limits": 8079,
      "archae": 8080,
      "teleg": 8081,
      "lucy": 8082,
      "autop": 8083,
      "tsarna": 8084,
      "felony": 8085,
      "machines": 8086,
      "labe": 8087,
      "isolated": 8088,
      "thum": 8089,
      "liquid": 8090,
      "hans": 8091,
      "partisan": 8092,
      "lauren": 8093,
      "concrete": 8094,
      "desk": 8095,
      "producing": 8096,
      "vacation": 8097,
      "djok": 8098,
      "install": 8099,
      "nancy": 8100,
      "analy": 8101,
      "sessions": 8102,
      "clinical": 8103,
      "1990": 8104,
      "caring": 8105,
      "turner": 8106,
      "brahim": 8107,
      "bale": 8108,
      "claire": 8109,
      "1million": 8110,
      "fate": 8111,
      "ronald": 8112,
      "hopeful": 8113,
      "agenda": 8114,
      "gifts": 8115,
      "federation": 8116,
      "zar": 8117,
      "replacement": 8118,
      "transition": 8119,
      "neymar": 8120,
      "stopping": 8121,
      "parker": 8122,
      "imir": 8123,
      "thorough": 8124,
      "jaw": 8125,
      "basically": 8126,
      "rical": 8127,
      "delays": 8128,
      "relevant": 8129,
      "climb": 8130,
      "pursue": 8131,
      "hner": 8132,
      "30pm": 8133,
      "prayers": 8134,
      "lung": 8135,
      "ckey": 8136,
      "dated": 8137,
      "tooth": 8138,
      "proportion": 8139,
      "900": 8140,
      "rafa": 8141,
      "unconscious": 8142,
      "whis": 8143,
      "claren": 8144,
      "campaigns": 8145,
      "djokovic": 8146,
      "wag": 8147,
      "brus": 8148,
      "engineers": 8149,
      "hai": 8150,
      "rifle": 8151,
      "screening": 8152,
      "heroin": 8153,
      "swept": 8154,
      "weir": 8155,
      "appla": 8156,
      "requested": 8157,
      "accurate": 8158,
      "boarding": 8159,
      "tast": 8160,
      "revealing": 8161,
      "jumping": 8162,
      "stupid": 8163,
      "liest": 8164,
      "pocket": 8165,
      "maintained": 8166,
      "maine": 8167,
      "fence": 8168,
      "poster": 8169,
      "smiles": 8170,
      "cather": 8171,
      "volunteer": 8172,
      "suburb": 8173,
      "bah": 8174,
      "oliv": 8175,
      "nathan": 8176,
      "dles": 8177,
      "rever": 8178,
      "owen": 8179,
      "savings": 8180,
      "dose": 8181,
      "telegraph": 8182,
      "underwent": 8183,
      "hollande": 8184,
      "3d": 8185,
      "cker": 8186,
      "hua": 8187,
      "20s": 8188,
      "leather": 8189,
      "sper": 8190,
      "soul": 8191,
      "conservation": 8192,
      "slammed": 8193,
      "neuro": 8194,
      "82": 8195,
      "hostage": 8196,
      "eases": 8197,
      "frustrated": 8198,
      "sensation": 8199,
      "wanting": 8200,
      "stressed": 8201,
      "borrow": 8202,
      "cristiano": 8203,
      "scrut": 8204,
      "overcome": 8205,
      "substance": 8206,
      "signal": 8207,
      "schedule": 8208,
      "agne": 8209,
      "facial": 8210,
      "emirates": 8211,
      "healthcare": 8212,
      "impression": 8213,
      "mbley": 8214,
      "addiction": 8215,
      "vietnam": 8216,
      "congrat": 8217,
      "trials": 8218,
      "chiefs": 8219,
      "stagger": 8220,
      "visions": 8221,
      "vatican": 8222,
      "portrait": 8223,
      "siblings": 8224,
      "empire": 8225,
      "vag": 8226,
      "theater": 8227,
      "haust": 8228,
      "deleg": 8229,
      "rees": 8230,
      "forum": 8231,
      "implic": 8232,
      "explosive": 8233,
      "leap": 8234,
      "wembley": 8235,
      "damages": 8236,
      "stafford": 8237,
      "aches": 8238,
      "bleeding": 8239,
      "elements": 8240,
      "1960s": 8241,
      "saint": 8242,
      "ulations": 8243,
      "homicide": 8244,
      "oon": 8245,
      "battled": 8246,
      "aller": 8247,
      "catherine": 8248,
      "exhaust": 8249,
      "monaco": 8250,
      "adjust": 8251,
      "kidnapped": 8252,
      "alliance": 8253,
      "everyday": 8254,
      "nutr": 8255,
      "osex": 8256,
      "explosives": 8257,
      "ideal": 8258,
      "phic": 8259,
      "credi": 8260,
      "cooking": 8261,
      "anymore": 8262,
      "distinct": 8263,
      "wre": 8264,
      "finishing": 8265,
      "scientist": 8266,
      "lobby": 8267,
      "invasion": 8268,
      "affordable": 8269,
      "paraly": 8270,
      "carib": 8271,
      "porno": 8272,
      "antha": 8273,
      "gare": 8274,
      "affects": 8275,
      "queensland": 8276,
      "shaped": 8277,
      "intimid": 8278,
      "massacre": 8279,
      "masters": 8280,
      "intensive": 8281,
      "warming": 8282,
      "historical": 8283,
      "ceme": 8284,
      "brun": 8285,
      "ucing": 8286,
      "kurdish": 8287,
      "tablet": 8288,
      "oo": 8289,
      "apers": 8290,
      "gps": 8291,
      "remin": 8292,
      "romantic": 8293,
      "listening": 8294,
      "brighton": 8295,
      "rhe": 8296,
      "ruth": 8297,
      "necessarily": 8298,
      "wiscons": 8299,
      "sacrif": 8300,
      "tsarnaev": 8301,
      "calories": 8302,
      "130": 8303,
      "bub": 8304,
      "addy": 8305,
      "stershire": 8306,
      "cdc": 8307,
      "dug": 8308,
      "brooks": 8309,
      "robot": 8310,
      "ferrari": 8311,
      "sergio": 8312,
      "phenomen": 8313,
      "caf": 8314,
      "suing": 8315,
      "restra": 8316,
      "garner": 8317,
      "promises": 8318,
      "terminal": 8319,
      "tribun": 8320,
      "boasts": 8321,
      "wisconsin": 8322,
      "admir": 8323,
      "downtown": 8324,
      "cure": 8325,
      "random": 8326,
      "terrified": 8327,
      "onia": 8328,
      "toug": 8329,
      "tent": 8330,
      "pledged": 8331,
      "stre": 8332,
      "avo": 8333,
      "roots": 8334,
      "recall": 8335,
      "aggravated": 8336,
      "addict": 8337,
      "careful": 8338,
      "apologised": 8339,
      "trauma": 8340,
      "resulting": 8341,
      "lancash": 8342,
      "dresses": 8343,
      "grief": 8344,
      "nevada": 8345,
      "lancashire": 8346,
      "rous": 8347,
      "operated": 8348,
      "350": 8349,
      "groom": 8350,
      "slide": 8351,
      "evil": 8352,
      "refusing": 8353,
      "ditch": 8354,
      "fts": 8355,
      "covers": 8356,
      "inth": 8357,
      "parole": 8358,
      "talented": 8359,
      "courtroom": 8360,
      "franco": 8361,
      "suspension": 8362,
      "unpreced": 8363,
      "dismiss": 8364,
      "acher": 8365,
      "landscape": 8366,
      "pical": 8367,
      "mosque": 8368,
      "unprecedented": 8369,
      "luk": 8370,
      "racism": 8371,
      "inner": 8372,
      "diseases": 8373,
      "sophie": 8374,
      "rings": 8375,
      "carlos": 8376,
      "recognition": 8377,
      "watches": 8378,
      "urging": 8379,
      "oles": 8380,
      "oxygen": 8381,
      "carto": 8382,
      "bane": 8383,
      "competing": 8384,
      "wooden": 8385,
      "campaigners": 8386,
      "ffe": 8387,
      "hes": 8388,
      "zan": 8389,
      "stunt": 8390,
      "fiance": 8391,
      "wider": 8392,
      "thri": 8393,
      "lambert": 8394,
      "aids": 8395,
      "cc": 8396,
      "samantha": 8397,
      "angela": 8398,
      "extrem": 8399,
      "anchor": 8400,
      "horrible": 8401,
      "lifting": 8402,
      "boehner": 8403,
      "izon": 8404,
      "brady": 8405,
      "whistle": 8406,
      "uten": 8407,
      "elig": 8408,
      "ttes": 8409,
      "flower": 8410,
      "ashes": 8411,
      "parliamentary": 8412,
      "improving": 8413,
      "kan": 8414,
      "suffers": 8415,
      "dign": 8416,
      "starring": 8417,
      "wrest": 8418,
      "eness": 8419,
      "runway": 8420,
      "bella": 8421,
      "kg": 8422,
      "caroline": 8423,
      "flex": 8424,
      "intens": 8425,
      "acres": 8426,
      "1989": 8427,
      "continent": 8428,
      "bacteria": 8429,
      "dj": 8430,
      "acare": 8431,
      "differences": 8432,
      "documented": 8433,
      "opens": 8434,
      "phoen": 8435,
      "organized": 8436,
      "assembly": 8437,
      "nicole": 8438,
      "anxiety": 8439,
      "sri": 8440,
      "handful": 8441,
      "buyers": 8442,
      "sergeant": 8443,
      "nightmare": 8444,
      "persie": 8445,
      "privile": 8446,
      "caribbean": 8447,
      "lank": 8448,
      "camps": 8449,
      "agric": 8450,
      "cm": 8451,
      "guine": 8452,
      "convent": 8453,
      "dealt": 8454,
      "launching": 8455,
      "jacob": 8456,
      "intr": 8457,
      "convictions": 8458,
      "defeated": 8459,
      "promising": 8460,
      "fixed": 8461,
      "ibility": 8462,
      "tone": 8463,
      "obamacare": 8464,
      "confronted": 8465,
      "jets": 8466,
      "exploded": 8467,
      "pizza": 8468,
      "maps": 8469,
      "feli": 8470,
      "aman": 8471,
      "vas": 8472,
      "phr": 8473,
      "perspect": 8474,
      "minim": 8475,
      "holders": 8476,
      "methods": 8477,
      "technique": 8478,
      "1991": 8479,
      "vladimir": 8480,
      "inf": 8481,
      "deficit": 8482,
      "cease": 8483,
      "cill": 8484,
      "discussions": 8485,
      "fernando": 8486,
      "stal": 8487,
      "realize": 8488,
      "styles": 8489,
      "conversations": 8490,
      "triggered": 8491,
      "examined": 8492,
      "tong": 8493,
      "examination": 8494,
      "brussels": 8495,
      "readers": 8496,
      "rises": 8497,
      "respected": 8498,
      "prisoner": 8499,
      "bolton": 8500,
      "lethal": 8501,
      "liner": 8502,
      "wire": 8503,
      "cabin": 8504,
      "evacuated": 8505,
      "celebrations": 8506,
      "samples": 8507,
      "accidentally": 8508,
      "expenses": 8509,
      "laughing": 8510,
      "killers": 8511,
      "tactics": 8512,
      "generations": 8513,
      "bout": 8514,
      "currency": 8515,
      "chand": 8516,
      "cleaning": 8517,
      "arn": 8518,
      "tube": 8519,
      "umes": 8520,
      "dumped": 8521,
      "roller": 8522,
      "kirk": 8523,
      "larry": 8524,
      "depth": 8525,
      "temple": 8526,
      "naturally": 8527,
      "itated": 8528,
      "difficulties": 8529,
      "phoenix": 8530,
      "severely": 8531,
      "tai": 8532,
      "compass": 8533,
      "classified": 8534,
      "arguing": 8535,
      "nursing": 8536,
      "duo": 8537,
      "elementary": 8538,
      "marc": 8539,
      "een": 8540,
      "thouse": 8541,
      "oping": 8542,
      "institutions": 8543,
      "drow": 8544,
      "rely": 8545,
      "viv": 8546,
      "arrives": 8547,
      "stops": 8548,
      "cruz": 8549,
      "bobby": 8550,
      "ication": 8551,
      "haiti": 8552,
      "diving": 8553,
      "lopez": 8554,
      "somehow": 8555,
      "vincent": 8556,
      "uff": 8557,
      "ranks": 8558,
      "trainer": 8559,
      "tribunal": 8560,
      "tracking": 8561,
      "illo": 8562,
      "glou": 8563,
      "somerset": 8564,
      "rip": 8565,
      "challenged": 8566,
      "scratch": 8567,
      "dirty": 8568,
      "recession": 8569,
      "barak": 8570,
      "storage": 8571,
      "executives": 8572,
      "orleans": 8573,
      "relaxed": 8574,
      "yacht": 8575,
      "unders": 8576,
      "punched": 8577,
      "tho": 8578,
      "tops": 8579,
      "highlights": 8580,
      "lasted": 8581,
      "diver": 8582,
      "amendment": 8583,
      "disturbing": 8584,
      "kilometers": 8585,
      "sion": 8586,
      "colours": 8587,
      "fleet": 8588,
      "rolls": 8589,
      "stake": 8590,
      "eighth": 8591,
      "norway": 8592,
      "modi": 8593,
      "orland": 8594,
      "lionel": 8595,
      "rapidly": 8596,
      "undergo": 8597,
      "southwest": 8598,
      "demonstrations": 8599,
      "uncovered": 8600,
      "cance": 8601,
      "hardly": 8602,
      "idge": 8603,
      "compreh": 8604,
      "clever": 8605,
      "franch": 8606,
      "terrifying": 8607,
      "seemingly": 8608,
      "harsh": 8609,
      "resignation": 8610,
      "philippines": 8611,
      "interven": 8612,
      "lis": 8613,
      "plain": 8614,
      "legitimate": 8615,
      "complicated": 8616,
      "cancelled": 8617,
      "famously": 8618,
      "foul": 8619,
      "fever": 8620,
      "asle": 8621,
      "movements": 8622,
      "medals": 8623,
      "burger": 8624,
      "extremists": 8625,
      "prestig": 8626,
      "marines": 8627,
      "colon": 8628,
      "lace": 8629,
      "scam": 8630,
      "murdering": 8631,
      "buff": 8632,
      "daw": 8633,
      "champagne": 8634,
      "pants": 8635,
      "coma": 8636,
      "guid": 8637,
      "naval": 8638,
      "tunnel": 8639,
      "bye": 8640,
      "damaging": 8641,
      "shootings": 8642,
      "longest": 8643,
      "repeat": 8644,
      "gonz": 8645,
      "circle": 8646,
      "installed": 8647,
      "awful": 8648,
      "applications": 8649,
      "unions": 8650,
      "beard": 8651,
      "ibrahim": 8652,
      "pine": 8653,
      "hitler": 8654,
      "81": 8655,
      "jol": 8656,
      "fool": 8657,
      "uefa": 8658,
      "lett": 8659,
      "ills": 8660,
      "poo": 8661,
      "unidentified": 8662,
      "petr": 8663,
      "universe": 8664,
      "20th": 8665,
      "proven": 8666,
      "publish": 8667,
      "peninsu": 8668,
      "conclusion": 8669,
      "recip": 8670,
      "polish": 8671,
      "fingers": 8672,
      "asleep": 8673,
      "meters": 8674,
      "mau": 8675,
      "yon": 8676,
      "consent": 8677,
      "elle": 8678,
      "ee": 8679,
      "gareth": 8680,
      "mentally": 8681,
      "fastest": 8682,
      "scenar": 8683,
      "stevens": 8684,
      "firearms": 8685,
      "tale": 8686,
      "shouting": 8687,
      "solve": 8688,
      "wast": 8689,
      "prevented": 8690,
      "abor": 8691,
      "reha": 8692,
      "forgotten": 8693,
      "northeast": 8694,
      "palin": 8695,
      "bau": 8696,
      "ees": 8697,
      "equally": 8698,
      "hob": 8699,
      "eline": 8700,
      "cox": 8701,
      "kinson": 8702,
      "passa": 8703,
      "reject": 8704,
      "indicate": 8705,
      "nadal": 8706,
      "wells": 8707,
      "communist": 8708,
      "deadline": 8709,
      "grandchildren": 8710,
      "explic": 8711,
      "banking": 8712,
      "bombings": 8713,
      "taxpayer": 8714,
      "motivated": 8715,
      "judicial": 8716,
      "webb": 8717,
      "selfie": 8718,
      "crackdown": 8719,
      "benjam": 8720,
      "ferdin": 8721,
      "statue": 8722,
      "cathe": 8723,
      "gies": 8724,
      "farage": 8725,
      "leton": 8726,
      "wishes": 8727,
      "nasty": 8728,
      "glouce": 8729,
      "cairo": 8730,
      "strain": 8731,
      "cosby": 8732,
      "ferdinand": 8733,
      "rivers": 8734,
      "ladies": 8735,
      "encia": 8736,
      "joked": 8737,
      "itar": 8738,
      "aspir": 8739,
      "elev": 8740,
      "judgment": 8741,
      "lengthy": 8742,
      "euros": 8743,
      "nsa": 8744,
      "amne": 8745,
      "insul": 8746,
      "mh": 8747,
      "climbing": 8748,
      "wrist": 8749,
      "retain": 8750,
      "arthur": 8751,
      "adopt": 8752,
      "briefly": 8753,
      "oning": 8754,
      "sein": 8755,
      "feld": 8756,
      "cao": 8757,
      "terri": 8758,
      "peninsula": 8759,
      "shower": 8760,
      "tissue": 8761,
      "maur": 8762,
      "rehabil": 8763,
      "emerging": 8764,
      "explaining": 8765,
      "skip": 8766,
      "benjamin": 8767,
      "railway": 8768,
      "ught": 8769,
      "divorced": 8770,
      "pharm": 8771,
      "promoting": 8772,
      "mohamed": 8773,
      "ahmad": 8774,
      "perez": 8775,
      "amnesty": 8776,
      "disappointing": 8777,
      "arettes": 8778,
      "airways": 8779,
      "underwater": 8780,
      "alexis": 8781,
      "cigarettes": 8782,
      "cence": 8783,
      "arsene": 8784,
      "lloyd": 8785,
      "resh": 8786,
      "teh": 8787,
      "columbia": 8788,
      "explanation": 8789,
      "expectations": 8790,
      "estimate": 8791,
      "penalties": 8792,
      "attractive": 8793,
      "techniques": 8794,
      "leak": 8795,
      "complain": 8796,
      "enko": 8797,
      "doub": 8798,
      "vaccine": 8799,
      "stir": 8800,
      "cemetery": 8801,
      "iders": 8802,
      "tracked": 8803,
      "regarded": 8804,
      "billy": 8805,
      "autopsy": 8806,
      "19th": 8807,
      "angle": 8808,
      "sophist": 8809,
      "esp": 8810,
      "openly": 8811,
      "carrier": 8812,
      "ankle": 8813,
      "desperately": 8814,
      "cris": 8815,
      "sealed": 8816,
      "voices": 8817,
      "lebanon": 8818,
      "athletic": 8819,
      "inee": 8820,
      "supports": 8821,
      "snapped": 8822,
      "dere": 8823,
      "lain": 8824,
      "tos": 8825,
      "dynam": 8826,
      "radiation": 8827,
      "84": 8828,
      "tablets": 8829,
      "explore": 8830,
      "bomber": 8831,
      "hypo": 8832,
      "ateur": 8833,
      "heathrow": 8834,
      "leaf": 8835,
      "fabric": 8836,
      "duties": 8837,
      "misconduct": 8838,
      "83": 8839,
      "charging": 8840,
      "employers": 8841,
      "indecent": 8842,
      "coastal": 8843,
      "liz": 8844,
      "bridges": 8845,
      "prints": 8846,
      "cheaper": 8847,
      "liberty": 8848,
      "volunt": 8849,
      "dement": 8850,
      "burgl": 8851,
      "boards": 8852,
      "lington": 8853,
      "acking": 8854,
      "endor": 8855,
      "percentage": 8856,
      "bach": 8857,
      "fted": 8858,
      "dramatically": 8859,
      "fundamental": 8860,
      "surf": 8861,
      "gie": 8862,
      "burglary": 8863,
      "sadly": 8864,
      "freezing": 8865,
      "tropical": 8866,
      "carriage": 8867,
      "erupted": 8868,
      "catching": 8869,
      "rem": 8870,
      "displayed": 8871,
      "presidency": 8872,
      "prelim": 8873,
      "blake": 8874,
      "substitute": 8875,
      "wen": 8876,
      "blues": 8877,
      "samar": 8878,
      "iii": 8879,
      "gins": 8880,
      "motive": 8881,
      "wreckage": 8882,
      "leigh": 8883,
      "councill": 8884,
      "losses": 8885,
      "ridiculous": 8886,
      "jews": 8887,
      "battles": 8888,
      "worthy": 8889,
      "auth": 8890,
      "clou": 8891,
      "virtual": 8892,
      "middleton": 8893,
      "dat": 8894,
      "operator": 8895,
      "cens": 8896,
      "dining": 8897,
      "khal": 8898,
      "deliberately": 8899,
      "situations": 8900,
      "nowhere": 8901,
      "dent": 8902,
      "amber": 8903,
      "beef": 8904,
      "pardew": 8905,
      "30s": 8906,
      "89": 8907,
      "divided": 8908,
      "kah": 8909,
      "brisbane": 8910,
      "deterior": 8911,
      "guin": 8912,
      "ratings": 8913,
      "printed": 8914,
      "tm": 8915,
      "flags": 8916,
      "harvard": 8917,
      "spotlight": 8918,
      "nol": 8919,
      "nsw": 8920,
      "pies": 8921,
      "remo": 8922,
      "newspapers": 8923,
      "catal": 8924,
      "pattern": 8925,
      "mason": 8926,
      "persist": 8927,
      "abbey": 8928,
      "ardy": 8929,
      "wages": 8930,
      "revenge": 8931,
      "obsess": 8932,
      "spaces": 8933,
      "elabor": 8934,
      "expects": 8935,
      "karen": 8936,
      "pressed": 8937,
      "arguments": 8938,
      "murdo": 8939,
      "sandwich": 8940,
      "idy": 8941,
      "institution": 8942,
      "inflict": 8943,
      "carpet": 8944,
      "files": 8945,
      "aunt": 8946,
      "hazi": 8947,
      "reluct": 8948,
      "silva": 8949,
      "86": 8950,
      "graphy": 8951,
      "calend": 8952,
      "sculpt": 8953,
      "knapp": 8954,
      "presents": 8955,
      "ttino": 8956,
      "chop": 8957,
      "recognised": 8958,
      "virtually": 8959,
      "signature": 8960,
      "touching": 8961,
      "pling": 8962,
      "praise": 8963,
      "violation": 8964,
      "cze": 8965,
      "rim": 8966,
      "quant": 8967,
      "steal": 8968,
      "eager": 8969,
      "bronze": 8970,
      "washed": 8971,
      "prohib": 8972,
      "acceler": 8973,
      "satisfied": 8974,
      "pastor": 8975,
      "accommod": 8976,
      "bits": 8977,
      "f1": 8978,
      "spa": 8979,
      "juvent": 8980,
      "adapt": 8981,
      "preliminary": 8982,
      "awaiting": 8983,
      "adventure": 8984,
      "chronic": 8985,
      "counting": 8986,
      "billionaire": 8987,
      "heels": 8988,
      "thames": 8989,
      "bod": 8990,
      "staggering": 8991,
      "dear": 8992,
      "juventus": 8993,
      "publication": 8994,
      "alerted": 8995,
      "peru": 8996,
      "petrol": 8997,
      "resolve": 8998,
      "qualifying": 8999,
      "indictment": 9000,
      "orlando": 9001,
      "sufficient": 9002,
      "blon": 9003,
      "croat": 9004,
      "inevit": 9005,
      "automatic": 9006,
      "harrison": 9007,
      "loe": 9008,
      "attacker": 9009,
      "guinea": 9010,
      "dha": 9011,
      "ferry": 9012,
      "trio": 9013,
      "biological": 9014,
      "fairly": 9015,
      "nightclub": 9016,
      "watchdog": 9017,
      "flooded": 9018,
      "chambers": 9019,
      "cops": 9020,
      "oy": 9021,
      "jerry": 9022,
      "disast": 9023,
      "pione": 9024,
      "fitting": 9025,
      "coff": 9026,
      "pump": 9027,
      "urge": 9028,
      "hunger": 9029,
      "mortgage": 9030,
      "astronom": 9031,
      "reducing": 9032,
      "donor": 9033,
      "motorists": 9034,
      "introduce": 9035,
      "dort": 9036,
      "nominated": 9037,
      "warns": 9038,
      "rosberg": 9039,
      "guarantee": 9040,
      "tobac": 9041,
      "triple": 9042,
      "murdoch": 9043,
      "heated": 9044,
      "electrical": 9045,
      "festive": 9046,
      "pellegr": 9047,
      "homosex": 9048,
      "anyway": 9049,
      "closest": 9050,
      "handled": 9051,
      "salv": 9052,
      "recognize": 9053,
      "innov": 9054,
      "vanished": 9055,
      "herald": 9056,
      "tsa": 9057,
      "wand": 9058,
      "donate": 9059,
      "belgian": 9060,
      "charities": 9061,
      "juven": 9062,
      "rington": 9063,
      "frustration": 9064,
      "attribut": 9065,
      "stephan": 9066,
      "dortmund": 9067,
      "networking": 9068,
      "perspective": 9069,
      "neth": 9070,
      "restore": 9071,
      "palm": 9072,
      "phase": 9073,
      "comic": 9074,
      "embarrassing": 9075,
      "roberto": 9076,
      "searches": 9077,
      "menu": 9078,
      "stabbing": 9079,
      "sunshine": 9080,
      "sket": 9081,
      "monarch": 9082,
      "revelations": 9083,
      "ias": 9084,
      "dementia": 9085,
      "30am": 9086,
      "dangers": 9087,
      "eligible": 9088,
      "paedoph": 9089,
      "artific": 9090,
      "cocktail": 9091,
      "boris": 9092,
      "natal": 9093,
      "existence": 9094,
      "longtime": 9095,
      "prompting": 9096,
      "miracle": 9097,
      "psychological": 9098,
      "producers": 9099,
      "superior": 9100,
      "travelers": 9101,
      "apologise": 9102,
      "duck": 9103,
      "cathedr": 9104,
      "gom": 9105,
      "confused": 9106,
      "accusing": 9107,
      "hydr": 9108,
      "artificial": 9109,
      "albert": 9110,
      "ella": 9111,
      "87": 9112,
      "stum": 9113,
      "tobacco": 9114,
      "neath": 9115,
      "slipped": 9116,
      "waist": 9117,
      "omin": 9118,
      "ceiling": 9119,
      "coaches": 9120,
      "visa": 9121,
      "stripped": 9122,
      "extremist": 9123,
      "dak": 9124,
      "chin": 9125,
      "glor": 9126,
      "dictator": 9127,
      "submitted": 9128,
      "constitu": 9129,
      "furnit": 9130,
      "recognized": 9131,
      "falcao": 9132,
      "chuck": 9133,
      "sheet": 9134,
      "toronto": 9135,
      "academic": 9136,
      "consumption": 9137,
      "benghazi": 9138,
      "furniture": 9139,
      "ripped": 9140,
      "ivory": 9141,
      "spirits": 9142,
      "sci": 9143,
      "samuel": 9144,
      "disclosed": 9145,
      "jeans": 9146,
      "politically": 9147,
      "bullets": 9148,
      "commissioned": 9149,
      "immune": 9150,
      "arranged": 9151,
      "bradford": 9152,
      "halt": 9153,
      "capito": 9154,
      "cave": 9155,
      "blown": 9156,
      "pile": 9157,
      "valencia": 9158,
      "correspondent": 9159,
      "recognise": 9160,
      "fines": 9161,
      "motherapy": 9162,
      "latter": 9163,
      "download": 9164,
      "drones": 9165,
      "atom": 9166,
      "guidance": 9167,
      "missiles": 9168,
      "beaches": 9169,
      "pellegrini": 9170,
      "weighing": 9171,
      "shooter": 9172,
      "avoided": 9173,
      "chemotherapy": 9174,
      "tours": 9175,
      "fights": 9176,
      "omed": 9177,
      "frequent": 9178,
      "rh": 9179,
      "offender": 9180,
      "highlighted": 9181,
      "robertson": 9182,
      "bloomberg": 9183,
      "yn": 9184,
      "traumatic": 9185,
      "swedish": 9186,
      "casey": 9187,
      "associate": 9188,
      "converted": 9189,
      "disability": 9190,
      "emiss": 9191,
      "rav": 9192,
      "starred": 9193,
      "acing": 9194,
      "undergoing": 9195,
      "subsequently": 9196,
      "twenty": 9197,
      "unfold": 9198,
      "reduction": 9199,
      "confidential": 9200,
      "tees": 9201,
      "surviving": 9202,
      "swell": 9203,
      "imper": 9204,
      "northwest": 9205,
      "cater": 9206,
      "equality": 9207,
      "sheik": 9208,
      "appreciate": 9209,
      "kal": 9210,
      "seiz": 9211,
      "tumour": 9212,
      "ading": 9213,
      "hostages": 9214,
      "withdraw": 9215,
      "consecut": 9216,
      "mask": 9217,
      "delhi": 9218,
      "basement": 9219,
      "deen": 9220,
      "enna": 9221,
      "burden": 9222,
      "rett": 9223,
      "strategic": 9224,
      "gabri": 9225,
      "peters": 9226,
      "140": 9227,
      "ike": 9228,
      "mons": 9229,
      "infant": 9230,
      "assaulting": 9231,
      "reunited": 9232,
      "foss": 9233,
      "sant": 9234,
      "stability": 9235,
      "monu": 9236,
      "formally": 9237,
      "arette": 9238,
      "):": 9239,
      "hailed": 9240,
      "kicking": 9241,
      "supporter": 9242,
      "nicol": 9243,
      "indication": 9244,
      "capitol": 9245,
      "whale": 9246,
      "happiness": 9247,
      "biography": 9248,
      "attackers": 9249,
      "silent": 9250,
      "sno": 9251,
      "vegetables": 9252,
      "jab": 9253,
      "gene": 9254,
      "retailers": 9255,
      "ghost": 9256,
      "unnamed": 9257,
      "beds": 9258,
      "sara": 9259,
      "consul": 9260,
      "lampard": 9261,
      "regas": 9262,
      "dennis": 9263,
      "transcript": 9264,
      "bn": 9265,
      "legendary": 9266,
      "solo": 9267,
      "brick": 9268,
      "partly": 9269,
      "idav": 9270,
      "suv": 9271,
      "detected": 9272,
      "tehran": 9273,
      "participate": 9274,
      "affidav": 9275,
      "fabregas": 9276,
      "rumours": 9277,
      "chave": 9278,
      "kinds": 9279,
      "aqu": 9280,
      "qualify": 9281,
      "unaware": 9282,
      "universities": 9283,
      "slum": 9284,
      "demonstration": 9285,
      "chemicals": 9286,
      "chavez": 9287,
      "surrender": 9288,
      "handcuff": 9289,
      "othy": 9290,
      "devoted": 9291,
      "manip": 9292,
      "emotions": 9293,
      "ika": 9294,
      "vessels": 9295,
      "julian": 9296,
      "adequate": 9297,
      "draft": 9298,
      "lancaster": 9299,
      "removing": 9300,
      "minds": 9301,
      "rafael": 9302,
      "professionals": 9303,
      "cathedral": 9304,
      "tipped": 9305,
      "educated": 9306,
      "joshua": 9307,
      "bother": 9308,
      "epide": 9309,
      "update": 9310,
      "assured": 9311,
      "kom": 9312,
      "ingredients": 9313,
      "burial": 9314,
      "subjected": 9315,
      "filling": 9316,
      "travellers": 9317,
      "patt": 9318,
      "expans": 9319,
      "thai": 9320,
      "yog": 9321,
      "shoe": 9322,
      "spreading": 9323,
      "myth": 9324,
      "ranking": 9325,
      "argentine": 9326,
      "cigarette": 9327,
      "jewellery": 9328,
      "mubarak": 9329,
      "fiscal": 9330,
      "illion": 9331,
      "aerial": 9332,
      "lesson": 9333,
      "automat": 9334,
      "liberia": 9335,
      "elephant": 9336,
      "exter": 9337,
      "thousand": 9338,
      "vand": 9339,
      "merkel": 9340,
      "portugu": 9341,
      "embrace": 9342,
      "deck": 9343,
      "pest": 9344,
      "aguero": 9345,
      "kok": 9346,
      "redknapp": 9347,
      "unrest": 9348,
      "hungry": 9349,
      "cargo": 9350,
      "sut": 9351,
      "moss": 9352,
      "screens": 9353,
      "shy": 9354,
[...]
